[PAD]
[unused0]
[unused1]
[unused2]
[unused3]
[unused4]
[unused5]
[unused6]
[unused7]
[unused8]
[unused9]
[unused10]
[unused11]
[unused12]
[unused13]
[unused14]
[unused15]
[unused16]
[unused17]
[unused18]
[unused19]
[unused20]
[unused21]
[unused22]
[unused23]
[unused24]
[unused25]
[unused26]
[unused27]
[unused28]
[unused29]
[unused30]
[unused31]
[unused32]
[unused33]
[unused34]
[unused35]
[unused36]
[unused37]
[unused38]
[unused39]
[unused40]
[unused41]
[unused42]
[unused43]
[unused44]
[unused45]
[unused46]
[unused47]
[unused48]
[unused49]
[unused50]
[unused51]
[unused52]
[unused53]
[unused54]
[unused55]
[unused56]
[unused57]
[unused58]
[unused59]
[unused60]
[unused61]
[unused62]
[unused63]
[unused64]
[unused65]
[unused66]
[unused67]
[unused68]
[unused69]
[unused70]
[unused71]
[unused72]
[unused73]
[unused74]
[unused75]
[unused76]
[unused77]
[unused78]
[unused79]
[unused80]
[unused81]
[unused82]
[unused83]
[unused84]
[unused85]
[unused86]
[unused87]
[unused88]
[unused89]
[unused90]
[unused91]
[unused92]
[unused93]
[unused94]
[unused95]
[unused96]
[unused97]
[unused98]
[unused99]
[UNK]
[CLS]
[SEP]
[MASK]
!
"
#
$
%
&
'
(
)
*
+
,
-
.
/
0
1
2
3
4
5
6
7
8
9
:
;
<
=
>
?
@
[
\
]
^
_
`
a
b
c
d
e
f
g
h
i
j
k
l
m
n
o
p
q
r
s
t
u
v
w
x
y
z
{
|
}
~
¡
¢
£
¤
¥
¦
§
¨
©
ª
«
¬
®
¯
°
±
²
³
´
µ
¶
·
¸
¹
º
»
¼
½
¾
¿
×
ß
æ
ð
÷
ø
þ
đ
ı
ĸ
ł
œ
ŧ
ƒ
ǀ
ǂ
ɑ
ɨ
ɷ
ʻ
ʼ
˂
ˆ
ˈ
ˉ
˙
˚
˜
ˡ
ˮ
΄
α
β
γ
δ
ε
ζ
η
ι
κ
λ
μ
ο
π
σ
υ
φ
χ
ω
ϒ
ϖ
а
б
в
д
з
и
к
м
н
о
п
р
с
т
у
ф
ц
ь
я
є
ѕ
і
ј
љ
ҫ
ا
ح
ـ
ل
ە
۷
฿
໿
ཉ
ཫ
ྊ
࿠
࿸
ᵃ
ᵞ
‖
‘
’
‚
‛
“
”
„
‟
†
‡
•
…
‧
‰
′
″
‹
›
⁄
⁰
⁴
⁵
⁶
⁷
⁹
⁺
⁻
⁽
⁾
₁
₂
₋
₤
₨
₩
€
₱
℃
℅
℉
№
℠
™
⅓
⅔
⅛
⅜
⅝
⅞
ⅰ
ⅱ
ⅲ
ⅳ
↑
→
↓
⇒
∆
∊
∎
∑
−
∕
∗
∙
√
∞
∠
∼
≈
≤
≥
⋅
⎼
①
②
③
④
⑤
⑥
─
│
┼
╱
■
□
▪
▫
▲
►
▼
◆
◊
○
●
◦
◾
★
☐
☑
☒
☨
☺
♠
♣
♥
♦
✓
✔
✗
✘
❖
❶
❷
❸
❹
❺
➢
➤
ⱡ
⸶
⸸
、
。
《
》
【
】
㎡
ﬀ
ﬁ
ﬂ
ﬃ
﴾
﴿
﷐
＄
％
＆
（
）
，
－
．
：
；
ｇ
ｏ
～
ﾀ
￡
￥
￦
🌑
##i
##l
##e
##y
##f
##c
##h
##o
##u
##n
##t
##g
##m
##a
##r
##k
##5
##2
##0
##p
##s
##x
##d
##8
##3
##±
##6
##1
##7
##b
##w
##q
##v
##4
##9
##z
##j
##×
##³
##¾
##´
##−
##µ
##≥
##€
##œ
##¹
##¤
##ł
##¨
##⁄
##º
##²
##¢
##μ
##¼
##м
##к
##∆
##ﬁ
##¸
##æ
##≤
##˚
##υ
##δ
##ø
##β
##½
##ß
##и
##√
##ʼ
##с
##н
##ε
##⅜
##∑
##⁻
##⁴
##α
##γ
##д
##ц
##ˆ
##ǂ
##ω
##¬
##¯
##¥
##∞
##þ
##£
##ζ
##ο
##љ
##⅝
##у
##ı
##κ
##ـ
##ﬂ
##∙
##⁰
##⁺
##∊
##₂
##΄
##ｇ
##ｏ
##⅓
##⅛
##ɑ
##ð
##～
##т
##ە
##໿
##⁹
##в
##ј
##б
##ﬀ
##і
##⅞
##ª
##ᵞ
##∕
##ҫ
##˂
##⅔
##ŧ
##φ
##а
##ل
##ا
##ˉ
##з
##р
##ʻ
##ѕ
##ф
##ˮ
##①
##π
##χ
##ﬃ
##п
##ι
##σ
##࿸
##đ
##о
##ĸ
##∗
##ˡ
##ⅱ
##η
##er
th
##ti
##on
##es
the
##ed
##en
##an
##in
in
##or
of
an
##al
##at
##ar
and
##tion
##ur
##ent
##om
##ec
##it
to
##ing
##ic
##as
re
pr
##is
##em
##il
com
##ts
##re
##ation
as
for
##ve
comp
##ol
##ou
20
con
##ly
st
##et
##anc
pro
##ir
##st
ex
inc
##id
##ement
##ac
our
##tin
on
ac
or
##ers
##le
##ate
##ment
##os
##ated
##li
compan
##ab
no
##uc
##ting
be
##th
company
##ter
##ul
is
##qu
##ial
##ect
res
we
##lo
##ith
200
##tr
##im
##nd
de
##ess
##ity
with
##ay
are
##per
##ain
##ber
by
##oc
not
##se
wh
fin
##ig
su
##ver
that
##tive
##ag
##oun
201
ad
##por
##ties
##est
financ
##ue
##ud
##ations
al
##ition
sh
##able
dec
##pr
acc
fr
##ance
per
##ch
##ff
financial
##illi
##ember
##illion
##ip
at
##ear
##ements
million
##us
##od
##ant
rec
exp
from
19
##ut
comm
inter
##ther
oper
stat
##el
##fic
am
##iv
##ust
##end
mar
cons
##mp
tr
ap
ch
##ock
un
##ities
ha
par
##ase
##ib
##ere
##ce
year
##ies
stock
ag
##ion
dis
31
##ich
##and
##lud
##tain
en
december
##ang
other
##duc
which
sub
##for
##ure
##low
##ans
199
man
##ow
##tions
##ted
includ
##ens
ser
##ary
shar
##um
##red
##ard
##ased
##ill
may
##00
##ap
##ad
##erm
ass
sec
produc
##iz
pl
have
##ome
val
und
its
##dition
##ual
contr
reg
ta
se
##fer
mark
inv
li
under
serv
le
##ments
##am
resul
was
##act
##pro
##ility
##ign
##ors
##ld
co
rel
##old
us
ind
##ese
##form
##ating
requ
rev
tax
suc
accoun
prov
servic
##eral
repor
##ould
##age
pur
##air
these
ne
agre
part
statements
##oss
gr
cas
sal
##ates
this
##igh
appro
##og
it
any
##iness
will
bus
business
end
000
##tic
net
value
incre
##su
manag
mat
income
interest
int
eff
##ective
cash
op
such
term
lo
##uring
##sets
assets
gen
equ
cap
cl
operations
cer
##olid
has
##un
10
##ord
requir
amoun
secur
pay
##irect
consolid
addition
invest
##urr
##ific
resp
imp
##orpor
all
market
ab
direct
provid
were
common
based
##its
pric
##ru
##ail
##iod
consolidated
##ings
period
##ital
##ee
##sti
related
management
disc
ended
reven
trans
loss
##tial
certain
shares
##ized
acqu
##ty
agreement
curr
##gh
pre
cos
##ach
##ous
##lic
over
##ately
chang
costs
share
##ence
##ative
capital
sp
##ited
##xim
products
cust
##ners
##ef
##ical
##tiv
if
##enc
during
##ough
cred
years
##ents
custom
##ures
##ank
bo
##hip
general
services
fair
offic
ob
##velo
plan
##so
up
##velop
sales
##ected
##ine
tim
mor
issu
sign
##loy
could
accounting
including
form
develop
operating
fol
##ilities
follow
app
regul
credit
new
##oll
fut
ow
esti
estim
emp
purch
##arg
##ory
ev
##isc
approxim
also
fac
##ior
employ
securities
liab
adv
##erial
##ong
##pos
fe
notes
bank
##pt
rate
future
pres
qu
ris
current
##ense
material
proper
results
contin
go
rece
##cess
##our
##und
approximately
##ot
thr
##arr
risk
##gr
##iscal
non
fiscal
aff
inform
been
##ferred
information
ann
subs
##ive
there
item
time
##ificant
through
##if
##are
##op
control
significant
ma
fil
##erc
intern
corpor
det
ben
##ject
##hold
red
due
additional
##all
##istr
##aw
price
##ily
amount
##tal
##ke
prim
their
each
than
##ied
##ose
##nership
##trib
me
##inc
fund
##ues
##idi
##ision
##uts
total
lim
##enses
sup
subsidi
result
cost
30
##ll
act
deb
##ech
bas
date
increase
##ogn
##urance
compens
exec
15
can
##ell
##ectively
report
princ
princip
##ork
##ass
sy
mon
##ined
condition
ear
ar
##ange
following
##ants
record
des
##isition
compensation
acquisition
revenue
##ia
br
into
perform
##ist
##ise
##sion
recogn
##utive
subject
##ep
directors
##arter
expenses
annual
loan
##ards
equity
##eth
##lig
##arily
str
hold
expense
ins
changes
receiv
transac
outs
do
debt
##olog
oc
loans
##echn
##erse
##ases
##erg
note
marke
required
av
development
##ire
##ution
investment
determ
##ivid
##ari
techn
##ection
12
##stem
pa
own
benef
purchase
au
##ower
est
def
executive
customers
##ade
##ie
product
aud
system
reporting
board
por
he
quarter
##anding
distrib
more
exch
##ub
one
primarily
bal
reduc
##les
flow
basis
di
##ons
upon
issued
##ree
activ
respectively
applic
rem
high
statement
el
amounts
compar
liabilities
##ish
vari
##verage
##ceed
fir
##aries
##port
##ying
rep
im
exchange
##ational
##ible
would
included
use
service
increased
avail
real
spec
main
inst
commit
rates
2008
earn
##holders
2009
bec
decre
corporation
partnership
adverse
beli
##ees
property
restr
revenues
##ects
##vel
law
##eld
march
2007
oblig
options
long
2006
##au
##hib
belie
principal
##ances
outst
outstanding
13
##ustr
##ight
2010
well
see
num
##out
pol
progr
filed
##ential
enter
##ast
losses
##cr
effective
##oci
##orr
14
##eti
continu
incorpor
amend
ref
prior
##anu
coll
technolog
##ticip
enti
jun
sale
loc
subsidiaries
used
2011
stand
carr
##ified
2005
ret
##ond
recorded
diff
pub
generally
associ
accord
refer
provide
janu
january
internal
11
fed
2002
##fact
##ission
2004
those
include
##par
impair
mr
facility
off
##los
officer
##cent
allow
federal
registr
bet
had
2003
industr
june
##ati
##uct
##fter
supp
##ves
2013
2012
program
requirements
##ack
##utions
ii
manu
competi
manufact
2014
grant
available
##we
2000
effect
##ix
level
##lement
##ination
charg
##gin
balance
pos
fact
##tiz
states
gu
month
class
##ved
contract
2001
qual
ability
tw
##ata
when
consid
insurance
##ability
companies
activities
mo
public
pers
number
set
##ause
##ame
asset
polic
##ends
##atory
exhib
##min
offer
limited
2015
present
adj
##ite
agreements
gas
disclos
deferred
##urn
##ween
between
investments
impact
united
prof
2016
1999
##av
seg
incorporated
##aim
estimated
divid
compared
cr
1998
process
data
min
after
employees
##ipment
expected
performance
terms
lease
##oin
repr
trad
sept
september
ph
25
##ency
##io
##ason
thir
sell
reference
##ide
##lish
pursu
##con
option
transactions
##acts
1997
flows
adjust
claim
##ys
payments
##vern
consider
recognized
paid
subst
position
govern
meas
equipment
##alu
repres
##ace
lic
##isting
state
third
proceed
##ortiz
sch
customer
##own
percent
provision
ord
made
##oup
reser
first
average
ext
##ters
##ercial
restric
fees
change
earnings
commercial
accounts
pursuant
cal
fore
trust
evalu
so
design
taxes
##ident
##to
borr
liability
##thor
##ateg
##ok
good
acquir
##ourc
1996
contracts
incur
less
estimates
##endent
prev
##tg
meth
gener
factors
audit
coun
amortiz
differ
aw
2017
three
method
der
instru
##ights
exerc
continued
impairment
mortg
within
properties
obligations
remain
##over
substan
sen
exper
conn
med
dep
maintain
##ft
##iew
##ful
##ex
foreign
conditions
director
##reat
##uly
author
group
associated
two
##ergy
substantial
##ten
grow
senior
16
rights
##fe
affect
reason
##gan
compl
deriv
currently
facilities
##ablish
regulatory
ful
establish
##tical
leg
pot
systems
dr
##ief
markets
##ources
plans
mod
feb
exhibit
dated
payment
pat
febru
february
##ured
##reg
prices
periods
vol
various
##ner
occ
gain
using
benefit
chief
obtain
provided
energy
table
##ced
##edg
includes
president
##ile
potential
standards
nat
##ice
admin
party
##ands
valu
##iation
owned
##cer
##uted
##ning
continue
elect
warr
mortgage
person
##ving
acquired
how
refl
officers
held
work
discus
nor
##ump
##ines
regulations
##ult
borrow
##quid
econ
industry
accordance
indep
econom
believe
applicable
below
##verti
preferred
ini
##ici
existing
technology
but
instruments
units
out
assess
claims
liquid
make
adop
port
##fore
##ize
stockholders
uti
committ
##ound
decrease
sum
experi
depos
##tober
october
sol
##liance
marketing
connection
sin
segment
administr
##ey
anal
##val
ll
received
purpos
##tives
sf
##alth
day
registrant
nov
apr
1995
##ove
decl
18
financing
laws
##omp
require
april
power
regard
##ization
##loc
##vir
##tig
benefits
id
since
##mit
distribution
determined
sim
july
##ore
electr
sfas
funds
##ending
cour
##tif
envir
##ever
commission
environ
##greg
arr
##fol
because
committee
comb
##mental
independent
##work
dem
eng
##yp
portfol
strateg
fur
aggreg
production
offs
particip
##oint
##ili
here
further
17
sold
again
sched
health
##da
growth
complet
respect
policies
return
50
##str
provides
##ether
##eric
above
incurred
corporate
estate
success
impro
##ural
four
##ware
november
both
larg
exc
##earch
inf
fl
##stit
indic
##ort
review
against
##will
risks
follows
consum
##ests
series
aug
##ages
oil
entered
del
##ble
some
amended
they
assump
sc
employee
goodwill
contrib
dividends
bu
##ules
security
adversely
##sp
##ious
portfolio
28
reported
lower
##ically
portion
2018
august
subsidiary
##esting
approval
##tific
order
##quent
##tern
fix
ro
hist
proced
arrang
carrying
##ensive
does
typ
summ
however
account
recover
##uction
thous
maj
section
need
economic
##ecess
##arm
##encies
transaction
line
##pri
fail
aggregate
contain
research
21
##ven
americ
major
iden
among
payable
compliance
sever
sett
##inated
instit
ownership
only
higher
deli
cent
invent
international
limit
##ompan
granted
##prec
compon
prot
##ak
hedg
##ward
affili
po
leases
profit
relations
legal
##crib
procedures
##ule
##ension
allowance
specific
defined
assumptions
deliver
analys
soft
guar
valuation
##egr
exce
life
fixed
about
regarding
controls
utili
guarant
##led
##ulated
provisions
offset
proceeds
neg
respons
disclosure
commun
##her
resources
integr
##ised
intang
22
assurance
##ular
24
previous
##vers
##inion
matur
29
months
100
whol
represent
manufacturing
conduc
##rement
##ilar
##man
most
##als
natural
purposes
##ollar
requires
software
27
##nel
invol
begin
similar
shareholders
expect
rest
reasonable
constr
##til
parties
##unc
##ium
##irc
##one
23
where
incen
minim
##ness
llc
unit
discoun
gross
wr
circ
liv
proj
##ute
dollar
matters
opinion
histor
partners
fas
exercise
accru
dispos
thousands
anticip
alloc
remaining
##inical
amortization
initial
administrative
necess
clos
##ables
restricted
actual
network
being
sel
orig
short
acquisitions
until
rent
##ety
like
expend
able
198
partner
relationship
whether
issuance
demand
##sequent
accompan
26
##dr
herein
33
support
stor
merg
analysis
resulting
##ivers
priv
##ences
##preciation
relating
national
license
em
40
##ividual
individual
##asing
while
she
vice
forth
##ival
experience
trading
event
accompanying
occur
government
##ict
##ister
events
sa
same
believes
1994
retail
te
local
organ
awards
quarterly
##king
##ield
##itures
##pl
pen
receivable
five
##tigation
excess
discussion
##less
who
guid
environmental
accrued
##emb
##icient
intangible
##tirement
##ian
currency
prem
second
offering
##ither
equival
derivative
##holder
full
##certain
consist
clinical
incentive
meet
equal
established
certific
many
interests
prom
##ild
##cribed
reserves
##udg
##ater
court
sm
margin
identif
percentage
reduce
expos
ten
##enture
calc
charge
uncertain
##inal
base
mul
must
ge
decreased
capac
principles
utiliz
beginning
##urch
##iss
cover
charges
suppli
tre
except
great
special
sw
according
##tim
##abor
without
programs
receive
warrants
dil
##ood
rati
affected
quality
expenditures
located
previously
suff
##omes
##ateral
office
liquidity
levels
recent
substantially
completed
##ification
att
kn
before
subsequent
##atives
volum
met
##ibility
sheet
##bs
approved
employment
holders
##ene
should
forward
competitive
joint
##reh
compreh
values
comprehensive
regulation
increases
construction
air
comple
00
fee
materially
##eng
either
##anch
##ption
converti
bene
##ession
repurch
iii
depreciation
benefic
convertible
arrangements
##istered
inventory
exceed
ca
firm
minimum
necessary
access
purchased
##ists
35
##ope
policy
collateral
attrib
gains
holdings
weigh
billion
cli
75
##lying
reports
cor
cont
retain
ach
##ested
##ins
##co
circum
##bur
##isted
##pa
achie
##mitted
electric
##hic
##ended
entity
extent
##lity
fasb
described
poss
##wise
##alf
wor
pension
500
weighted
partic
considered
multi
plus
businesses
##bal
##ks
bro
down
significantly
days
registration
circumst
eur
build
borrowings
secured
memb
successful
holding
prepar
patent
otherwise
entities
settlement
merger
adopted
##te
circumstances
key
conting
rules
reduced
assum
##ier
litigation
file
several
large
##ories
particular
cod
greater
members
amendment
supply
prac
cause
model
advis
reduction
rele
accep
then
implement
##ining
presented
selling
separ
judg
glo
private
his
aut
##eness
commitments
##rug
technologies
##go
deposit
resid
##avor
reserve
targ
##lation
##olving
##aff
recognition
competition
##equ
maturity
estimate
likely
back
60
premium
right
##enced
##sue
##iting
##ph
sou
exclud
##unction
served
trial
disclosures
expir
relationships
accepted
##dic
adequ
care
termination
drug
##eets
lead
measur
consumer
##ably
global
historical
##ications
restruct
contractual
capacity
personnel
pred
alth
although
##portun
pricing
accounted
opportun
components
attribut
appropri
competit
beneficial
adverti
##uel
negative
##atis
##ton
treat
index
case
retirement
mainten
maintenance
##sed
finance
car
##mission
accordingly
become
##ale
post
primary
advertis
##used
vo
registered
adoption
vi
distributions
determine
standard
deposits
sufficient
dam
div
##uctu
fluctu
action
guidance
pati
##ics
materials
medical
accum
countr
did
dev
##lus
adjustments
partial
1993
##orts
broad
fourth
bl
##ensed
##itive
##ators
applications
##acted
##lied
amortized
stud
##ender
north
items
adjusted
project
##edi
##etary
america
imm
plant
##tice
land
unable
competitors
beh
trade
##iven
##iter
attributable
therefore
##ectiv
193
failure
concer
evaluation
cre
equivalents
shall
##ret
##ote
32
funding
ther
supplement
convers
prob
revolving
assessment
col
reflect
tem
summary
investors
activity
conversion
foc
appropriate
##tics
region
overall
sur
sheets
authorized
rene
delay
improv
accumulated
application
working
##ally
mer
consideration
mee
conf
world
##leg
dividend
resulted
affiliates
meeting
decision
proceedings
34
them
fda
restructuring
##press
defa
carry
actions
manufactur
##izes
cali
positions
home
schedule
decline
infr
##art
##by
##nia
fuel
ratio
##yal
designed
propos
##imbur
##ucture
45
efforts
cle
90
closing
servicing
##eb
former
diffic
fully
directly
##rap
reimbur
strategy
york
original
solutions
past
##land
##crip
califor
california
obligation
award
let
jo
operate
autom
##ource
intr
##xy
corr
36
satis
super
entit
renew
##ina
operation
code
coven
##ectiveness
additionally
warrant
test
advertising
sing
combination
low
##ada
##ury
##tit
compr
##omm
##emed
small
dollars
##ify
segments
##going
range
volume
compet
open
exposure
##entures
repurchase
represents
volati
##ather
europe
criter
pharm
realized
majority
enh
purchases
venture
ded
##acy
##ecting
swap
##itical
classified
issue
la
discussed
partially
lived
tele
underlying
cand
##ulation
doc
bre
audits
member
free
criteria
37
acquire
engine
effectiveness
patents
institutions
behalf
banking
ul
discount
coverage
sources
reli
maxim
sav
transfer
royal
inp
qualified
target
needs
nam
restrictions
##ind
favor
receivables
profession
candid
bear
generated
##ept
mis
##aged
brok
tempor
##ark
bond
##erv
altern
possible
##ising
delivery
unre
wholly
banks
##alized
##osp
express
conc
38
repl
taxable
indicated
variable
repay
prosp
treatment
agreed
tex
anticipated
indeb
indebted
##ley
protection
plac
##itten
##itor
discon
ga
specified
48
call
##ps
effects
summar
accept
indebtedness
projects
highly
chair
persons
discontin
area
capitalized
areas
##ns
ra
##ator
proxy
balances
er
ce
look
uns
outside
##ge
##ling
single
relative
labor
distribut
docu
stockholder
least
nex
yield
install
respective
deal
202
satisf
mid
continuing
savings
##vision
expand
typically
distr
providing
commod
different
controll
corp
##limin
initi
entitled
saf
institution
residential
##enting
intell
lt
asc
developed
restated
rede
##ises
iv
##cription
exam
intellect
practic
stores
intellectual
none
nature
adjustment
rule
subord
expl
##ograp
##ric
default
increasing
active
##up
46
covenants
##ulative
asu
##way
char
##ections
1934
##wards
limitations
##ering
combined
multip
treas
responsible
exhibits
written
42
take
safety
monthly
statut
temporary
strategic
presentation
rental
counter
elig
final
selected
##anced
##illing
lines
termin
##ention
categ
##ro
pe
internet
ve
conver
##ites
staff
chairman
##izations
propri
looking
comply
responsibility
medic
##he
den
##ery
conduct
six
spons
bi
communications
alleg
american
mil
##ms
adequate
component
penal
##dress
transport
proprietary
address
##rupt
next
unless
discontinu
ultim
complete
earned
consists
charged
generation
squ
center
measurement
contributions
obj
manage
add
forec
useful
found
##part
80
water
conducted
39
allocated
prec
timely
opportunities
reflected
##thers
51
dates
brand
timing
returns
fluctuations
domes
quan
early
voting
site
es
ship
evaluating
rating
41
99
##uris
gaap
countries
##ne
ltd
last
##ouse
agencies
exclus
55
65
issues
compu
attr
electron
immedi
division
differences
read
##emption
tel
##idence
vesting
things
district
enterpr
depart
testing
square
volatility
##aud
reimburs
##lass
suppliers
##cc
assumed
managing
subordinated
juris
ir
cum
##emn
texas
dependent
availability
conform
pip
compete
diluted
monitor
##utical
44
fre
##thern
maximum
43
univers
##ick
##err
known
owners
tak
reasonably
inputs
jurisdic
head
recovery
space
##aceutical
52
phys
top
certificate
##wr
south
2019
##inary
indemn
##line
deemed
preparation
accr
ste
contingent
schedules
sole
##els
discontinued
##igned
hedge
variety
depend
unr
covered
longer
domestic
47
##ino
clients
##ength
##paid
##care
eligible
franch
123
##ah
focus
hot
cy
name
broker
processing
##bit
industrial
others
norm
completion
improvements
wells
##amp
##ulting
vir
professional
manufacturers
signed
tit
separate
candidates
ongoing
cumulative
defic
expire
##aging
legis
measured
49
basic
patients
totaled
##retion
##ane
disposition
1992
hand
##of
judgment
consulting
recognize
place
practices
given
70
providers
performed
lives
fo
reins
making
85
anti
store
calculated
experienced
dou
fam
profitability
obs
bon
cases
##aster
association
healthcare
underwr
unrealized
53
building
##ov
technical
interp
##eed
audited
commodity
##ology
integrated
alternative
sets
notice
merch
##astr
##oti
##wide
consult
##cy
elimin
pharmaceutical
terminated
impaired
##urring
stated
environment
storage
##centr
##oted
detail
food
derivatives
manager
explor
identified
01
pending
##ptions
inher
named
even
deg
seek
concentr
inves
ens
prevent
pass
remed
bankrupt
excluding
replac
consistent
##lem
course
owner
##ping
import
inherent
critical
##tional
damages
favorable
industries
71
generate
defend
trials
62
proposed
plat
sponsor
stra
introd
penalties
llp
transportation
prep
defin
cop
status
pipel
viol
enfor
consolidation
##etr
vend
permitted
measure
measures
multiple
geograp
##ansion
bonus
hedging
flo
applied
##aft
phase
agency
resol
##atures
obtained
listed
straight
##aur
cell
function
66
interim
platform
maturities
collabor
shareholder
dig
agent
reclass
vary
expansion
statutory
book
arrangement
acr
organizations
wa
redemption
negoti
leased
principally
referred
##bt
##inations
contained
ms
bankruptcy
restaur
##illed
##isable
vehic
plain
source
##other
##ral
refin
permit
56
approach
deduc
outc
##vant
authorities
pack
china
caused
##ico
purpose
indirect
uses
authority
successfully
54
exercisable
cance
##arters
personal
carryfor
##active
pool
82
chan
manner
determining
##ices
determination
annually
licenses
evidence
complex
grants
##aware
fle
achieve
bonds
salary
harm
you
utility
95
types
gam
upd
nas
ed
declar
might
difficult
canada
##aining
##arb
57
uncertainties
stre
therap
##ison
intend
examp
department
##esp
traded
twel
write
exclusive
computer
announ
lawsu
managed
anticipate
##acter
comparable
channel
occurred
74
##eto
tradem
family
orders
lib
twelve
participants
delaware
ending
discretion
treasury
filing
hosp
accrual
chem
know
complain
taken
suppor
derived
##br
interpret
premiums
##junction
best
normal
totaling
wide
##ax
transmission
##read
card
step
transition
locations
quoted
58
comprised
##ath
unc
licens
respects
##uled
engineering
throughout
du
unsec
webs
cable
city
##az
unsecured
##itiz
prohib
63
immediately
page
vested
administration
operational
offices
lending
engaged
81
##eler
degree
weak
breach
represented
feet
inventories
##ole
core
parent
87
entire
mc
partnerships
coal
involved
##ned
effectively
royalty
frame
consisted
##iqu
counterpar
manufacture
type
master
developing
##ually
owns
trends
wire
largest
ensure
tog
evaluate
borrowing
furn
centers
##bile
disposal
rang
west
money
designated
59
reimbursement
61
drilling
##tiff
impacted
trustee
university
elected
processes
eth
##ervable
borrower
plaintiff
reflects
together
64
exploration
sens
advances
vest
became
rad
300
hospital
redeem
##yl
intended
contribution
governmental
##ature
##stat
example
clear
black
predict
apply
investor
##iver
conclud
character
projected
terr
margins
structure
serve
overs
receip
offerings
point
emerg
telec
reit
investing
goods
face
67
holder
acceler
##onse
collection
##sh
##sel
allocation
##oints
accountants
##izing
advant
72
##wh
sk
negatively
media
guarantee
02
sem
##enders
98
near
response
protect
worldwide
##bo
relevant
expects
vote
##ifications
prepay
wholes
sci
enc
assist
reinsurance
funded
title
amendments
fairly
perm
##aid
recon
impos
implementation
conjunction
digital
abs
doubt
##oles
hum
insured
participation
250
##tible
##ida
leverage
##utation
68
improve
divers
distributors
duly
framework
infring
limits
scheduled
infrastr
devices
##ols
enterprise
hy
flor
operated
letter
##orp
periodic
now
organization
sites
her
regional
##organ
another
arising
southern
##mb
stage
numer
##reen
going
credits
84
##edge
mix
maintaining
ebit
69
difference
ordinary
carryforwards
consent
performing
profits
county
occup
community
77
extended
particularly
letters
affiliate
extr
conformity
commitment
records
gold
libor
close
began
infrastructure
##espond
05
correspond
invested
times
field
representing
legislation
03
press
73
outcome
88
##hl
reach
assessing
raw
team
##daq
discounted
union
nasdaq
97
supplemental
78
joh
hel
##itative
allowances
mic
##ecogn
76
equivalent
depending
##ron
valued
##ished
recently
contains
##yond
probable
florida
thereto
buy
season
83
complaint
geographic
historically
methods
futures
licensing
automo
##ifying
##alleng
lenders
uncertainty
potentially
##ude
challeng
unf
##tc
terminate
misstat
##istics
contingencies
retained
pipeline
expiration
important
strategies
presents
allows
##eption
##cil
television
involve
franchise
##son
accur
banc
volumes
calcul
foot
force
94
09
converted
exercised
##ington
offered
points
judgments
inception
strong
86
liquidation
fdic
ebitda
issuer
inj
ventures
branch
ultimate
appe
promo
beyond
website
ill
numerous
licensed
lab
decisions
92
networks
extern
concerning
91
##after
having
topic
96
document
regular
##abilities
description
raise
400
disclosed
summarizes
indenture
##craft
size
##ecognized
operates
bar
concluded
##ectives
human
severance
##omin
##unctions
##ousing
show
forma
maintained
matter
wholesale
##lu
ip
333
computed
prepared
93
way
##ra
mi
client
mex
unrecognized
patient
introduc
regulated
jurisdictions
consisting
shown
repair
reductions
150
79
ver
age
often
whole
governance
turn
contributed
ever
rap
unpaid
guarantees
announced
advanced
produce
##cement
tradition
chemical
individuals
oversight
197
electronic
external
wireless
backed
##iture
##iers
paper
depends
##agn
incorporation
aircraft
carried
european
charter
evaluated
satisfy
identify
##ommun
extension
##ody
04
delays
secret
instrument
continues
89
teleph
content
commissions
reorgan
pc
yet
##ink
integral
06
modified
provider
merchand
hard
##eu
bearing
wee
generating
mich
##roll
objectives
retr
specialty
problem
strength
annum
cat
obtaining
declared
difficul
publish
underwriting
web
##empt
##tified
reviewed
collectively
waste
##retirement
telecommun
postretirement
debentures
leading
studies
advance
guidel
cond
constit
rapid
ps
supplementary
vac
##int
analy
effici
##ills
utilized
measurements
damage
##ming
##ones
election
guaranteed
vide
location
concern
##action
remo
##house
requirement
affiliated
swaps
rely
pac
dise
geor
vers
mineral
##anes
documents
reti
emission
##vement
prefer
along
earli
##eco
disp
disru
cyc
haz
1991
sust
capabilities
permits
physici
extensive
##iana
gaming
users
training
associates
##emp
functions
transferred
suit
added
positive
thereafter
utilize
purchas
educ
ox
##encing
struct
##yn
opportunity
millions
extend
consumers
subsequently
##issory
participant
tra
weakness
inn
rein
utilities
larger
offers
promissory
request
driven
exceeds
remediation
##ta
expensed
guidelines
mean
##van
advisor
##urer
##endar
calendar
render
considers
##orn
08
tenant
07
discover
medicare
housing
repayment
mak
delivered
initiatives
mut
mining
leasing
##oph
match
online
defer
##utes
expectations
planning
ranging
##tically
corresponding
developments
##lear
advisory
##ought
sti
asser
reconcil
hotel
compos
fhl
certification
sustain
across
publicly
qualify
attract
vendors
placement
closed
specifically
##idge
participate
forfe
##contr
requiring
recoverable
mobile
plants
acceptance
auditors
inflation
improved
traditional
susp
release
##ma
influ
exist
reviews
san
##lated
fraud
dail
##ars
find
category
supplies
street
lender
##icon
daily
summarized
certificates
study
deter
consumm
600
tier
qualitative
##adian
advantage
appear
recurring
ny
calculation
video
revised
securitiz
half
investig
central
seven
telecommunications
milest
light
country
inability
##ost
##iber
ratios
monitoring
employed
seeking
err
dealer
nuc
approvals
parts
hedges
doubtful
maintains
enacted
serves
electricity
##urrence
##ston
enable
401
canadian
mand
##arks
##ancy
distributed
functional
plaintiffs
acceptable
affecting
spl
implemented
mach
engage
whose
underst
bul
##uck
create
reorganization
##ets
120
interpretation
assign
quarters
crude
changed
consultants
dealers
mexico
##lies
log
pron
##ledge
star
spending
civ
##tainment
##vested
scope
improvement
##more
1990
currencies
decreases
view
pronoun
virgin
800
update
fcc
later
##pi
intends
formed
earlier
ratings
defici
warranty
##cements
device
integration
flex
dilutive
wash
telephone
hour
produced
##view
settled
focused
examination
##tle
motion
secretary
defendants
fhlb
qualifying
weather
refund
colum
borrowers
minor
ferc
supporting
##der
renewal
##rs
counsel
john
knowledge
communic
recomm
quantit
wind
dism
indicate
technological
periodically
travel
quantitative
##ligh
governing
##audited
unaudited
conven
secure
rather
forms
##west
petr
involving
##bert
broadc
what
##unt
pacific
asp
proved
prime
relatively
execu
replacement
hazard
practice
copy
progress
nev
##ously
dur
##ille
##uit
observable
producing
##ism
eas
resolution
tests
better
nuclear
##where
##apan
mass
means
##back
##eding
##tivity
alleged
interc
exchang
##iable
establishing
enhanc
##inite
oh
epa
ware
enhance
self
sect
history
##ominated
features
cur
relate
changing
nevada
deterior
##mark
indef
thousand
exists
japan
marketable
submitted
##unch
civil
##with
cancell
##arch
manufacturer
quanti
##ped
georg
indefinite
133
brands
##ift
definitive
142
ultimately
sharing
planned
cho
placed
innov
reliability
reducing
furthermore
agents
forecas
##ont
##portion
canc
penns
steel
clean
##iary
headqu
thereof
needed
controlled
approximate
collect
deficit
disag
spread
##ler
merchandise
##ylvan
techniqu
thus
subj
pennsylvan
reclassified
##tification
categories
trademarks
##idential
pennsylvania
##estern
scholes
conse
cross
seasonal
restaurants
assigned
atl
consequ
supervision
dismiss
##ulf
nonc
enforcement
##esee
classification
illino
assure
##ny
else
park
commenced
##gy
##head
##ero
prospects
royalties
mutual
fif
servicer
illinois
##water
combinations
acquiring
##ions
pop
eliminated
##oper
washington
af
lack
holds
discounts
##iving
125
hazardous
expires
controlling
##ri
ethics
safe
predecess
##duct
noted
georgia
elsewhere
indemnification
capacities
projections
mac
foresee
few
##log
##me
green
buildings
actu
advisors
##ville
13a
radio
characteristics
vis
##ci
receipt
launch
ohio
##ibles
##ifies
##ilit
##pra
revers
sil
translation
bid
hier
##wood
hierarch
models
king
reconciliation
peop
economy
cd
syn
las
vehicle
mess
bancorp
lawsuits
vehicles
split
##ai
carol
meaning
purchasing
virginia
covering
##itch
##erman
paying
supplier
hardware
separately
intangibles
hierarchy
east
formerly
treated
##atell
participating
##let
omitted
spr
impose
##ports
achieved
dav
transf
##ompany
label
problems
##illiam
establishes
##tis
initially
##ry
##ient
recognizes
manufactured
##ames
fall
appoin
##eme
prospective
reputation
foreseeable
exposed
satell
austr
programming
##ersey
##gl
hear
##argo
amounted
intercompany
101
entertainment
confidential
help
emerging
##inter
color
obligated
restaurant
william
esp
##onstr
commercialization
reform
scho
##ays
denominated
objective
asia
limitation
##ios
involves
utilization
perman
lou
rendered
permanent
appeal
operators
caption
shop
tenants
jersey
##irm
stations
foreclos
##gen
demonstr
##onsolid
cancer
redeemable
once
##eff
##the
carriers
automa
misstatement
ceo
144
157
conflic
factor
##edd
diagn
eight
unders
ww
##fo
whereby
hydr
elements
pronouncements
executives
##tise
declines
emissions
expertise
sarb
occurs
##ca
length
##oleum
political
efficient
sarbanes
##ailing
oxley
determines
drugs
##acting
appointed
respond
##erce
##echan
reverse
##na
##ama
expanded
managers
##draw
old
disagre
##izon
mitig
artic
clar
allowed
gl
prepayment
relates
groups
mot
lawsuit
predecessor
##ounds
withdraw
necessarily
diagnos
frank
emb
put
##cl
house
frequent
pursue
arise
##ered
upgr
smaller
##ado
station
louis
imposed
##ota
appra
##vest
1989
budg
##usts
tang
rail
makes
unfavor
##pm
##ford
##lements
submission
channels
mechan
undersigned
physical
becomes
www
rich
assuming
##tingu
austral
assessments
disease
sun
prepaid
membership
awarded
grap
formul
counterparties
insp
petroleum
every
investigation
expressed
700
techniques
committed
salaries
##eting
tables
thereby
bill
realize
occurrence
communities
certified
independ
apart
executed
##eter
homes
excluded
##olling
##iti
goals
##gress
##ob
filings
independence
tow
indirectly
##place
lp
efficiency
automotive
reportable
reserved
jurisdiction
track
repaid
##asons
assessed
user
robert
distribute
ren
commerce
109
increment
interru
receives
infringement
##hood
counterparty
##apital
handling
hotels
concentration
mine
overview
micr
##ounted
therapeu
##light
undisc
lesser
sells
trademark
late
difficulties
minority
750
cooper
appreciation
proportion
earning
floating
prc
examining
annu
slow
##bc
condensed
proceeding
education
recovered
week
definition
join
still
##ancing
created
accelerated
consequences
nu
surr
1986
##fill
relief
tangible
##opt
carolina
volunt
valid
duties
farm
trend
##arial
discl
semicon
war
##elf
disagreements
##oma
hedged
rs
entr
portions
semiconduct
largely
give
##uses
141
##onsolidated
chec
backlog
death
identifiable
analyz
eit
##uch
##ogen
collaboration
delin
utilizing
casino
serving
camp
preceding
##down
unith
scale
sit
unithold
resource
har
900
enhanced
occupancy
unfavorable
presently
mun
river
##state
lose
##cs
collected
restrict
signatures
##bia
incremental
defense
##ott
mature
capitalization
circuit
usa
grad
##crow
vendor
actuarial
##lease
sensitive
declined
##urers
firms
##ba
escrow
mill
enterprises
western
transfers
nine
chain
solely
##bank
packaging
##ask
##dom
exit
##author
grade
applies
institutional
mortgages
comparison
entergy
consequent
optim
undiscounted
room
billed
##qual
therein
installation
targeted
adopt
contam
pertain
commencing
##otes
deprec
vess
worth
1988
remains
eitf
headquarters
satellite
aspects
rat
##oming
metr
dir
targets
workers
joined
growing
repurchased
##force
arm
leasehold
violations
list
beneficially
##igg
foregoing
auditing
reasons
##face
draw
shipping
##ental
subscription
consequently
quantities
##tinguish
retention
assumption
##mc
exceeded
effort
origin
released
run
scien
##obs
collateralized
miss
shows
monetary
##orne
whom
et
deploy
superior
simp
regions
brokerage
##unto
nav
atten
dom
##authorized
james
speed
##quency
expired
kingdom
duke
bloc
##ana
newly
names
understanding
mary
jr
assemb
classes
called
sponsoring
enforce
people
accurately
solution
unauthorized
ground
realiz
displ
intent
##uting
duration
dispositions
prin
situ
unconsolidated
modification
contribute
thereunto
warehouse
trusts
physicians
start
##ael
priority
payroll
taking
203
semiconductor
##icip
facilit
tools
evaluates
regulators
applying
municip
bur
##sc
hospitals
350
plas
##plus
thres
blo
exposures
fid
barg
very
detailed
sector
threshold
attention
##star
surg
crim
pressure
origination
##adway
redeemed
fa
rig
##tine
112
##gas
overhead
symb
1987
gulf
annivers
customary
municipal
incentives
joining
marketplace
reflecting
nom
relation
rou
##law
moreover
revision
##ened
borrowed
retailers
##adequ
inadequ
##ired
securitization
receipts
versus
acts
operator
##ives
realty
marketed
##ii
lien
001
##qualified
downt
pan
##ening
##lihood
recommend
fleet
residual
originally
secondary
david
drive
fluctuate
likelihood
##ream
phil
reached
##tt
michael
##field
medicaid
attorn
casual
irs
my
terror
distributor
attorney
discovery
rock
replace
fab
listing
adequacy
hereby
treadway
proc
oem
remained
contem
deductible
violation
treasurer
exempt
feature
pharmaceuticals
articles
##af
yields
never
candidate
suffer
exception
liable
therapy
negotiated
##lusion
german
prevailing
##ourse
broadcast
2020
chap
select
##lim
milestone
achievement
identical
acres
reb
##etts
northern
fargo
profitable
methodology
1a
estimating
regularly
noncontr
peti
##amortiz
presence
convert
##ake
impairments
notional
noncontrolling
##charg
instances
##rel
apprais
mainly
individually
symbol
stream
bad
zero
##achus
dat
massachus
representatives
your
massachusetts
ess
pattern
##pc
##lementing
agric
installments
execution
unamortiz
accountant
##edded
legisl
successor
disposed
indicative
unamortized
virt
traff
sab
initiated
play
mitigate
commercially
const
exceptions
adequately
electronics
influence
owed
##oid
attractive
recoverability
quick
surplus
##perform
traffic
hor
inadequate
pledg
facts
il
agricult
##observable
##ony
unobservable
identification
##ological
apb
pages
embedded
receiving
##ique
gather
school
implementing
sustained
fines
gran
##ox
discharg
satisfaction
ur
resell
maryland
##ansas
usage
##ern
contractors
unvested
remainder
otc
penny
##nes
dilution
om
##ourcing
##lands
mag
processed
employer
unitholders
threat
considering
md
extra
##iated
bases
flexibility
##ha
morgan
floor
laboratory
ipo
approximates
professionals
published
anticipates
##ways
dod
realization
defaul
perce
around
reinvest
##anta
export
unex
diversified
organized
mail
##omas
##ete
commercialize
metal
anniversary
##urrent
criminal
accruals
subscrib
tender
refinancing
messrs
unique
introduced
15d
##dle
diss
purchaser
territ
soc
retrosp
colorado
removal
nyse
110
##ug
cs
scientific
seeks
expensive
louisiana
##be
actively
rul
issuing
cease
costly
substances
spect
pn
mem
amer
constitute
cancel
purchasers
furniture
##lin
##uty
arch
##stone
##ett
cells
##urb
unres
fiber
attest
##tib
challenges
repurchases
extinguish
##ider
##oung
excludes
issuable
valley
##ibilities
frequently
coup
sections
attempt
highest
weaknesses
##itors
poll
cycle
mov
guarantor
mississ
downturn
suitable
rise
indiana
##ead
shor
nomin
mal
immediate
##yc
##stream
concentrations
##ik
aware
uncoll
closure
issuances
introduction
##ration
115
superv
##ported
160
##atch
errors
##rew
deficiencies
columbia
130
appar
entering
led
mississip
computation
australia
##icated
##ived
via
bio
additions
##hore
1933
##ago
foreclosure
brought
details
young
##enn
pow
road
billing
heav
7a
separation
afford
whenever
deductions
blood
recru
regardless
mississippi
finished
submit
budget
approve
volatile
196
barr
135
disclose
recourse
trigg
motor
settlements
guarantors
##has
realizable
contempl
offsetting
ep
sensi
premises
responsibilities
##ulg
##aking
consultant
club
##ience
implied
increasingly
ang
concerns
fulfill
portfolios
discretionary
moun
authorization
rapidly
element
##ready
seller
wal
kee
chapter
parag
wood
interm
##entioned
substit
depository
##itation
already
statutes
controller
automatically
promulg
severe
interpretations
matching
##antic
##ares
offshore
suite
brokers
braz
##ein
##ectible
competing
voluntary
sponsored
enroll
varying
pep
carrier
conce
committees
valuations
expanding
##igan
pooling
##under
much
junior
repairs
thomas
requested
##fc
formation
stop
fer
prelimin
casualty
avoid
communication
##ground
auto
eliminate
modifications
##tail
emphas
link
essential
recoveries
##cp
achieving
determin
lit
ppl
don
bring
eps
interstate
readily
gene
detect
herewith
cm
mus
attestation
hours
##vey
bylaw
arbit
forecasted
##och
promotional
##att
retired
194
clearing
ing
##insic
preferences
bulle
coso
##si
assistance
furnished
intrinsic
annuity
pledged
misstatements
containing
bulletin
alliance
##raph
assignment
euro
prescribed
##linical
solar
injury
composition
minimize
liens
##esh
attemp
##erson
##istic
smith
collective
expiring
bylaws
cam
sn
unrelated
guaranty
asb
selection
shipments
subscribers
block
sensitivity
##lif
conflicts
graph
chr
##vent
##anties
disruption
micro
tm
bay
##ave
180
petition
financed
chemicals
edison
extraord
enab
##ially
similarly
##ades
chic
load
##ann
instead
boston
dividing
physician
rated
lif
enables
disruptions
##atr
##lot
extraordinary
##eas
sg
exchanges
undert
execute
commodities
shipment
middle
impacts
marine
switch
platforms
107
disability
win
effic
utilizes
freight
instr
##den
privacy
internally
fal
##band
cp
alab
poly
opening
search
prop
121
alabama
##andon
predic
##wor
carb
##kn
paragraph
mandatory
##sour
michigan
##urement
##acks
possibility
mergers
lin
voice
##verse
##ald
creditors
preliminary
##opol
prud
##use
pipelines
determinable
aer
fsp
##aterial
##atter
abandon
bel
bears
choose
meetings
140
rata
contamination
miles
unused
lever
originated
biot
population
##ev
privately
tv
attach
renewable
##ash
computing
complement
##ilt
chicago
##fs
merc
wm
prevention
metals
detection
efficacy
fire
satisfied
leaders
##anol
pays
preclinical
role
##itable
mg
##olved
measuring
error
legislative
automobile
signature
reliance
ratably
congress
incident
corporations
producers
auction
appeals
shopping
neither
##hous
gs
construc
integrate
datab
goal
fit
warranties
##point
securing
chase
synd
##aa
promulgated
spent
gathering
mol
##bers
tested
catal
prohibited
desp
promotion
##estit
entry
institute
covenant
giving
credited
prompt
##ariff
wisc
spectr
conducting
##onsin
social
feed
##itary
despite
geograph
divestit
wil
9a
waiver
##ew
weeks
##berg
##ds
unan
tariff
wisconsin
bonuses
attorne
attorneys
formula
fiduc
##airs
dist
rsus
insurers
128
alli
film
159
medium
assured
extinguishment
taxation
131
quot
routine
branded
ineff
ec
106
##affili
beneficiary
merchant
workforce
depreciated
recording
manufactures
nonperform
richard
outp
gp
delayed
removed
vie
usually
nation
reloc
111
replaced
barrel
##lines
renewed
subjective
withhold
intention
assur
foods
facilitate
##estos
sponsors
aven
translated
difficulty
raised
##isite
105
##pe
improving
prospect
asbestos
slight
closely
mw
electrical
specialized
immun
consummation
reliable
pain
dodd
immaterial
samp
principle
##affiliated
input
123r
conserv
reinvestment
##emptions
##enty
divided
deduction
##bi
allocations
investigations
dim
pressures
preference
820
intense
administered
pal
codification
secre
roll
display
ok
##road
milestones
lock
##tify
feas
twenty
##ecutive
anim
defaults
settle
collections
##off
flu
downs
##ney
uncollectible
encour
frequency
restrictive
military
germany
sports
prohibit
opened
diagnostic
375
consecutive
shared
ib
compensatory
deteriorate
eastern
harb
continuous
insu
##enti
therapeutic
chin
resale
news
allowing
alternatives
indicators
atlantic
confirm
refinance
spin
designs
logistics
bargaining
granting
rus
143
alleging
statis
steps
little
though
furnish
encoun
proposals
identifying
buyer
agricultural
##ips
insuff
assurances
properly
tranch
agree
reclassifications
subcontr
constant
##ape
fiduciary
engag
penalty
patterns
##gu
structured
108
secrets
##loit
deficiency
demands
enhancements
##interest
rents
mountain
unde
##nst
affairs
documentation
establishment
sanc
740
decom
discussions
him
sl
noninterest
catastr
absor
acre
##ectic
stan
updated
requisite
priced
promote
failures
alone
##de
##worth
trustees
##bac
designation
serious
comments
continually
espec
##day
##do
##mate
104
sug
deferral
break
representative
especially
stocks
calculate
governments
1985
remote
gm
decid
fails
##hen
minnes
minnesota
insufficient
therm
shipped
jose
reserv
surface
statute
appoint
universal
broadband
decommission
fabric
cards
sought
prepayments
vig
##atories
##aneous
##bl
##urs
kind
##ounding
exchanged
disputes
requests
reimbursed
files
los
limiting
forfeitures
misc
##ture
copyr
indicates
195
ic
apartment
supported
resolved
##gs
registrants
450
alig
vessels
jointly
bench
imaging
consolidate
thereon
proposal
installed
missour
missouri
competes
efficiencies
##east
calculating
##itr
colleg
##ring
quickly
##ublic
accrue
tank
science
modify
issuers
constrain
consolidating
representations
##ats
train
shorter
##ount
##ga
truck
financings
doing
##umin
bridge
chinese
##ows
indemnify
assume
pret
##cal
dispose
productivity
unaffiliated
##echnology
##factory
##lex
##usion
accident
comput
peer
deem
sound
calls
connectic
connecticut
payors
nr
semi
built
carbon
auditor
##conn
capability
failed
analysts
##izona
hire
arizona
encounter
uk
terminal
staffing
obsol
protoc
duty
coast
##bu
obsolete
cancellation
commenc
##isco
meaningful
##unded
check
silver
attributed
cellular
pul
vigor
host
commencement
returned
##zer
authorizations
absence
asserted
solid
##ges
ethanol
##olf
appearing
##akes
actually
repayments
percentages
##itan
intermedi
stay
spectrum
jack
##asters
laboratories
ster
exercises
lake
concess
##time
dyn
##pmg
setting
revisions
102
declining
lowest
intel
corrective
indications
forwards
meets
##appro
expose
kent
solic
resign
ced
advantages
ernst
unexp
breaches
earth
lost
##ologies
175
maximize
men
path
##itish
jud
employers
british
##ids
climate
innovative
toward
##dc
directed
##selves
surv
generic
extreme
omn
hou
believed
##msc
okl
##odies
prescription
calculations
##ading
##ahoma
clin
##alls
stable
##hc
##like
invo
##burg
taxing
##ct
##ients
harmed
1984
acting
##ng
characterized
recapital
kpmg
decommissioning
liber
accred
lessee
isra
##ticipated
unanticipated
148
haw
functionality
nonac
oklahoma
formal
tal
##rees
pollution
peak
structures
mm
negotiations
deterioration
pet
considerations
tons
inclusion
suspended
biotechnology
##elon
paul
absol
itself
##nessee
blue
interactive
tennessee
elim
contracted
shift
occurring
##tibility
##tel
procedure
absolute
404
interruption
franc
elimination
sand
hong
302
soon
##sb
manages
pu
##cf
antib
##well
retaining
##iesel
false
ngl
pretax
evolving
ore
##employ
forecast
cms
##inn
718
##sa
body
branches
becoming
hereof
specifications
string
vigorously
2021
fifth
unlike
lond
hyp
satisfactory
passed
cut
lieu
collaborative
forced
movements
coord
side
##oy
##criptions
performs
supervis
existence
catastrop
dedicated
london
ele
harr
discharge
##eal
avenue
##iters
##onom
assembly
103
reversed
lear
enters
takes
restor
##10
willing
curtail
poor
oppos
flat
##ux
##criber
compounds
white
##eration
methodologies
dan
beverage
allocate
matures
bind
assumes
cancelable
automated
apparel
retrospective
diseases
johns
legacy
##lam
uni
houston
thereunder
146
exemption
inhib
##ung
tool
covers
##oud
games
nda
subscriber
leadership
outcomes
##rec
screen
concurrent
oral
##letion
procurement
reviewing
inspection
suspension
withholding
brazil
unreg
dilig
allegations
##pet
##sop
box
ingred
retro
ques
##ster
##zz
grand
consuming
compound
##teen
molec
convenience
##mer
158
##reek
living
interconn
##lows
##tes
internationally
consummated
nutr
student
indication
dry
##abil
205
custod
commonly
aggregated
##rey
unresolved
tox
trades
##vert
administrator
machines
hu
arbitration
##ker
cancelled
875
stringent
sellers
subcontract
incorporate
##ham
reimburse
625
##oen
skilled
minimal
alter
##aces
##rell
##umption
##top
##issue
sublease
sanctions
republic
##atic
confidence
##asting
outsourcing
##opolitan
accurate
bulk
pros
evaluations
variations
defendant
magn
simplif
##look
retroactive
##capital
monitors
##ucky
slightly
##ara
##olution
##opers
involvement
indemnity
plc
##asive
attacks
expenditure
145
reversal
appears
minerals
##erve
engineers
worked
nominating
metropolitan
organic
copper
licensees
creation
regulate
please
powers
unexpected
smart
##crual
##using
accessories
##mi
rank
pp
ours
probability
gall
nonaccrual
succeed
cf
fewer
deloit
archit
deloitte
acceleration
kong
stages
surrender
hol
##atement
denied
jeff
affirm
withdrawal
lang
heart
confidentiality
france
escal
alumin
##kets
tissue
fast
225
##oline
##psc
exelon
attached
contemplated
wat
music
addresses
ray
##lord
resort
installment
independently
vul
dental
afric
cg
132
ber
reh
package
mir
spot
reimbursements
enact
ut
hurr
##asc
diverse
114
wall
onc
pursuing
##ging
copies
remit
sus
118
hurric
maturing
prospectively
merged
comparing
standby
rentals
basin
forecasts
judic
creek
pledge
##oft
9b
gives
footn
normally
releases
kr
##ication
register
dismissed
hom
surgical
negotiate
machin
pcs
integrity
aluminum
##ester
outlook
ots
##mon
profile
introduce
database
606
micros
biom
pharmac
conventional
rm
exceeding
practicable
depletion
ceased
angel
declare
india
162
hos
insol
psc
dos
1b
##yle
college
##take
##apor
##ario
shelf
kansas
franchisees
undercapital
ds
##hy
##oth
pertaining
exclude
underwriters
contractor
kentucky
timber
##com
signal
##istrib
shut
analyses
nonqualified
heading
hir
360
##ommod
amends
##pression
nurs
cloud
382
arth
##acc
accommod
undercapitalized
direction
effected
supr
ways
extensions
ton
recapitalization
seasonality
##rete
##reted
creating
commence
move
##oz
johnson
##ospace
fresh
tobac
##olver
sam
contact
ash
distin
reduces
collaborators
cv
examinations
rising
esop
dial
carryforward
speculative
cycles
##bb
tranche
behav
delinquent
foundation
machinery
adjustable
comparative
standing
raising
##americ
phot
certainty
aim
##wear
liberty
judicial
centr
insurer
categor
funda
fundamental
##bor
tobacco
expert
##inate
printing
hill
##tures
annualized
forfeiture
weight
owning
territory
toxic
mont
reclassification
qualification
inherently
recommendations
accelerate
truc
distance
pump
diligence
prove
narr
penetr
cn
engaging
demonstrate
154
prohibits
launched
concentrated
##edia
lay
therapeutics
word
batter
##cel
architect
surrounding
propane
citiz
tum
print
americas
varies
##ligence
stanley
conducts
harbor
contractually
landlord
hs
uniform
906
##ush
influenced
##aps
laser
spring
aerospace
develops
hearing
imposition
labeling
touc
organiz
unfunded
jus
##othe
undertak
situations
supreme
nol
##va
collectability
resolve
##erry
upgrade
adap
##alid
jobs
##istributed
done
absorb
debts
refr
clearance
nc
lti
undertake
161
stip
chil
terrorism
##aska
optical
##aza
##urate
fron
far
keep
##che
charles
feasibility
rico
##lp
catalog
challenge
causing
faith
affects
##bridge
sb
automatic
ruling
chartered
undistributed
##ference
gradu
art
unkn
alleges
describ
510
stabil
bell
espp
starting
refining
gh
animal
live
##ominant
touche
continuation
accretion
segreg
sectors
atm
citi
writing
remove
afor
cfo
websites
severity
containers
##eries
creditworth
recognizing
unknown
widely
cab
##vency
students
induc
##aign
wy
adviser
unb
front
##ode
corn
2022
golf
revolver
enhancement
##eters
alm
ameren
##market
electronically
##lor
preparing
sent
complexity
sterling
son
clarifies
sop
##eful
recruit
gal
completing
penn
overse
bach
recyc
designing
invalid
complying
##trust
1983
merit
estimation
organizational
departments
contingency
lat
entirety
##iles
finally
terrorist
analog
##lined
cooperative
dynam
nonperforming
210
advice
therapies
155
pricewater
remedies
ark
england
broadcasting
220
entirely
##sw
proportionate
##tron
defines
##ographic
##ulate
##pay
economically
midwest
prol
accomp
horizon
accomplish
gasoline
notified
composite
stability
consumption
plastic
renov
economies
aggress
##houseco
capable
references
band
pricewaterhouseco
temporarily
##ront
courts
angeles
authoritative
perpet
spreads
headc
##aho
pricewaterhousecoopers
hon
refinery
downgr
image
campaign
aver
accuracy
##load
thirty
rac
joseph
numbers
aggressive
##ementioned
##held
defects
##aly
debenture
##net
1980
founded
produces
flexible
headcount
##erto
latin
var
capitalize
decide
compli
enactment
summer
whe
cyber
publishing
##tifying
mission
hypothe
skills
puerto
payables
buyers
tech
diam
pepco
138
rebates
conflict
tub
upgrades
constraints
restatement
lev
temper
followed
aforementioned
113
##uda
##icing
behavior
unear
supervisory
dispute
unearned
assistant
bak
terminates
##ourced
innovation
curve
task
##board
alliances
##ike
improper
plaza
fuels
educational
binding
island
##veloped
##ext
books
differenti
vulner
alle
compares
scen
complaints
aid
correct
permitting
lyn
vies
williams
eu
##idents
surve
server
disasters
restoration
dose
##dren
122
emergency
pse
decided
atlanta
sea
##01
choice
renewals
careful
vessel
fort
soph
deep
collec
sciences
137
151
undertaken
##tier
hud
hypothetical
boards
vacc
diversification
subsid
##ert
audio
remedi
fields
nonrec
tri
##ette
drawn
demonstrated
phone
posted
pf
ax
redemptions
appraisal
neur
ltip
cry
interruptions
devote
finding
alco
ranges
##acent
##iw
na
overr
diesel
##fr
gar
vision
sequ
children
bachel
wmmsc
nearly
hun
emphasis
165
prepare
unregistered
unus
bankers
recip
rmb
adopting
detected
tend
124
fash
190
heating
brown
modern
##key
170
##entions
apartments
resorts
##essed
##umber
##owa
vacation
##quir
communicated
noncomp
lot
##za
orient
pound
ae
moody
infringe
benchmark
adding
117
rand
developers
ultr
fixtures
oak
holid
##mar
heat
understand
##gi
1940
##ams
gate
##allas
dimin
sophistic
pharmacy
spe
licensee
machine
interested
mcf
come
environments
##ban
260
tor
container
240
founder
resignation
computers
telecom
pca
airlines
forfeited
650
column
##app
notification
##ivity
mad
appointment
##omen
divisions
cin
efficiently
resc
##ersed
leveraged
##utory
shortf
engagement
conservation
116
ts
##uctions
##pp
perpetual
ford
concept
14a
martin
typical
exclusively
kore
africa
unqualified
##istry
oems
tur
tail
midstream
##issu
##tili
550
nationwide
occupied
attributes
pb
frb
153
enj
##ola
simult
cc
instruction
israel
undeveloped
204
acad
assesses
die
ly
drop
149
associations
230
rout
heavy
##ican
inquir
berm
exclusivity
275
##iff
medicine
fc
##kin
##une
fired
refined
ace
towards
occas
eag
spend
arthur
##shares
proven
japanese
basel
605
##ibly
citizens
desired
##fa
arre
pv
constructed
moving
config
pnc
1122
##ectivity
boe
restructured
##bled
true
adjacent
quotations
prospectus
dallas
reinvested
attempts
affordable
cb
derive
subjects
took
networking
##ica
substitute
uncon
oreg
jones
indices
surgery
deuts
bure
oregon
buying
lump
119
mcc
ready
quantity
tower
pil
deployment
##lusive
enrollment
pools
prosec
wages
multif
bios
hem
shortages
mig
legally
complementary
##ibus
relies
##isms
billings
sprint
extending
fashion
mae
langu
recession
bachelor
126
awar
##ky
resigned
##iel
ot
caps
cleanu
multiplied
eligibility
contributing
mechanical
align
##25
discour
129
##isa
bp
##standing
##ea
awareness
ligh
iowa
scott
motiv
trou
perceived
works
##ides
format
cult
##rals
resellers
##times
creditworthiness
bermuda
##gines
hereto
thrift
ham
##porting
##uccess
##eterm
utah
bed
counties
focuses
approximated
copyright
##uccessful
mall
##ascular
unsuccessful
bott
pas
##mond
drill
causes
##hs
mechanism
imposes
moder
cla
remedial
rob
patented
passeng
trail
##oir
caution
##acle
variability
arkansas
vii
ke
280
indentures
enabling
miscell
miscellaneous
dc
##ystem
wastes
leader
hiring
teams
##alle
words
flood
127
frontier
heavily
deliveries
advertisers
underground
cleanup
aggregating
##apore
134
frag
game
engines
##group
singapore
contents
broader
##ki
attend
##opharm
trs
output
divestiture
ven
fulfillment
compensated
hal
treatments
said
initiate
glass
tab
iso
interven
desir
turb
initiative
sr
accredited
newsp
##ptible
nominal
terminals
shif
collectibility
depth
hund
anc
rigs
abb
##avail
##ocket
incurring
prescrib
lap
mel
considerable
disrupt
relocation
trib
##aneously
vegas
magaz
constitutes
analyze
sulf
param
mold
1982
##atient
leaseback
residents
background
composed
fish
job
hundred
##front
vs
##build
##yne
##thetic
eagle
##ollo
mp
nursing
territories
customized
##uits
dissolution
declaration
refers
protocol
reservoir
merchants
comed
continuously
discuss
tc
815
rh
##eless
originate
attain
integrating
lam
amp
310
##icted
possession
##ze
almost
deutsche
cad
possibly
acreage
##emaking
##downs
learning
tariffs
silicon
dominion
competitor
mt
mbs
##emic
cra
bureau
ffo
ni
##amily
beach
managerial
decreasing
sometimes
136
cool
possess
challenging
moved
arrears
seat
permanently
protein
precision
##ano
comprising
hawai
francisco
mortal
##que
takeover
array
lands
deposited
defending
ju
demographic
dup
finalized
continental
clo
##rill
##quencies
big
discontinue
practical
multifamily
prudent
mortality
##12
headquarter
warner
franchises
##ersen
winter
##vi
##ema
scal
##gc
167
pace
166
##anium
##illary
##30
injection
always
excise
construct
##lets
notwith
mentioned
gard
notwithstanding
standardized
fract
distinct
subscriptions
brook
scr
ingredients
##stock
delivering
##missions
lessees
purported
##era
focusing
distributes
deliverables
trump
producer
bancshares
##fund
sophisticated
147
nm
predicted
schools
ros
comprise
325
novel
acute
iron
nutrition
insign
compliant
dependence
aviation
omnibus
divert
2023
ey
categorized
grew
156
supplied
bodies
captions
##aul
##adel
indian
##brl
women
##ena
##ij
orderly
##mo
vill
substance
tracking
601
federally
career
graphic
violated
golden
rub
southwest
carefully
nj
metrics
##iwan
##la
doe
##ka
##located
films
lessor
impl
nin
qualifications
affirmative
century
associate
connect
pit
vit
192
panel
##hol
xbrl
liquids
remeas
##bus
unpr
define
encourage
australian
##apers
taiwan
##han
impacting
marks
approving
ancillary
##gun
liquidated
virtually
refunds
##aco
pd
brief
168
hybr
payout
mile
##rev
coupon
solicitation
alternate
headquartered
conclusion
complied
drivers
prevented
jpm
accrues
belief
loyal
unpro
scru
existed
policyholders
850
collaborations
strict
phi
##eck
shell
coupled
wid
downward
##ologic
taxed
debtors
troubled
##osph
coating
assert
stem
##oenix
diversion
##print
domain
unavail
##ochem
productive
ns
structural
##ores
equals
hart
annuities
1350
begins
tn
northwest
##inees
sar
disbur
nols
originations
repricing
nominees
steam
predominant
phoenix
accruing
##tile
enabled
##umb
nich
context
fib
unfor
expands
unions
270
##stein
challenged
139
outf
santa
sourcing
reits
185
##erved
##outh
##kee
weekly
##eny
##ysis
updates
interface
automation
pnm
russ
radi
##ergies
microsoft
council
incidental
##cence
parking
peter
fm
protected
gap
delinquency
lod
pcaob
attracting
320
appraisals
sars
exchangeable
memor
drilled
greenhouse
deed
lynch
pipe
certifications
ct
threatened
outdo
evid
##ipp
official
##iling
##lical
##hi
toler
household
coff
liquidate
mills
##otherap
##oxide
##spec
mechanisms
railroad
today
george
grain
##ita
occasion
advised
fs
##mal
clauses
begun
resist
susce
retains
upfront
dak
##11
plastics
simulation
##onald
##odyne
rehab
##hips
reinsurers
falls
convey
version
packages
enhancing
bills
cig
unusual
trip
pict
##phan
bord
ineffective
163
##usted
governed
trucks
hybrid
##phia
supersed
idaho
transform
prohibition
custodian
##apol
nitr
sugg
indefinitely
##aims
merchandising
amb
popular
##antom
##energy
seism
incurrence
rej
refundable
valuable
just
cities
hourly
fabrication
pun
franchis
recommended
##employment
consistently
negotiating
language
fox
supports
diamond
publicity
concessions
ordered
degrees
restriction
ferrell
compensate
##zy
comprom
formulation
##cing
engineered
##car
##tm
rose
152
centralized
505
connected
infringing
##ronic
develo
differs
##edict
quotes
insolvency
##vard
round
187
sky
cyclical
favorably
unspec
informed
805
##hes
sized
##ista
seismic
merge
barrels
oce
phantom
##goti
gre
voluntarily
developer
unspecified
andersen
##rim
skin
orth
blank
expression
fn
##inity
ibm
nb
ceded
earthqu
experiences
memory
##oke
acquirer
##eseen
divestitures
renegoti
nether
sd
steven
##western
crop
##osis
mines
667
unlikely
unpredict
enough
bir
ig
amortize
##enth
##20
lee
hydroc
206
claimed
unemployment
dv
##izer
pi
mob
korea
outdoor
penetration
diab
1981
instability
rooms
lighting
##ces
rf
accommodate
abandonment
obsoles
factory
serviced
biological
cold
unal
suspend
orphan
premier
##ored
approaches
votes
##issible
addressed
allegh
excell
obsolescence
substantive
illustr
surety
peoples
subcontractors
capture
noncance
##american
hub
nonrecurring
dpl
##leading
recall
ml
##isons
addressing
fifty
##ander
sba
administer
810
incorporates
thermal
creates
##change
##ench
cris
authorizes
##hu
surch
surcharg
##ented
experiencing
wage
##iaries
waivers
canceled
lists
##elect
mexican
hydraul
oversee
appropriately
uncondition
rehabilit
qualifies
oriented
strike
simultaneously
catastrophe
lg
unbilled
##oms
viable
simple
statistical
misappro
hired
agrees
motors
cel
deducting
wholesal
chip
assertion
classify
linked
susceptible
allocable
revise
phases
cardi
fill
fhlbank
whichever
vertical
unforeseen
bc
strengthen
##keting
##atin
recruiting
biopharm
conditional
hosting
discourage
reass
inacc
reset
determinations
ss
buff
prudential
extremely
##omb
northeast
adapt
peco
##wealth
relied
introductions
ho
eliminates
compression
eg
##icate
fitness
wafer
synthetic
unallocated
os
libr
discip
preclud
##ione
consummate
double
merrill
##ourn
##uries
forest
assisted
netherlands
172
hamp
acquires
validity
question
commonwealth
kil
ire
diagnostics
froz
faster
stim
answ
forg
loyalty
foreclosed
##ulent
wel
holiday
calling
188
##iger
scan
retrospectively
pounds
laund
##essor
insignificant
waived
hip
##anged
##corp
countercl
van
anch
fine
##advant
retire
je
opinions
dakota
extends
invests
ba
barriers
certifying
##kins
transmit
interf
geodyne
eliminating
hen
modules
hospitality
footnote
monitored
surviving
equities
moderate
##esis
reclam
fulf
gift
suits
themselves
architecture
intermediate
reclamation
comparisons
mezz
harris
hydro
allegedly
reconc
prolong
##repr
essentially
restructure
htt
notic
stephen
soci
##lights
daniel
tick
##rick
expectation
targeting
bund
generates
loaned
##aded
configur
equally
##anded
text
##unctive
ourselves
misleading
fann
##link
italy
emergence
##75
164
tied
##anine
indexed
##tricted
movement
landfill
##tists
merits
toll
215
react
##shire
jew
corre
##tor
oncology
punitive
fraudulent
islands
bever
ry
places
airline
cit
map
persu
obtains
argen
ix
thresholds
unrestricted
burn
survey
bread
noncompliance
##orated
passenger
191
dioxide
battery
fig
meg
promotions
aging
##rements
inspections
windows
economics
##glas
##outs
##allow
##owners
disadvant
positioned
instance
sulfur
cargo
desk
resident
cpa
abl
tx
participated
guide
##iding
hills
##ishing
miller
jackson
cub
grown
publications
ireland
destin
displays
apollo
##ensity
irr
etc
acid
aep
ipl
ech
tumor
fannie
permissible
clause
ont
##49
salv
ocean
delta
##ger
##met
douglas
southeast
recre
##fin
identi
serp
optimize
indicator
abuse
debtor
historic
mezzanine
ku
situation
midamerican
thin
storm
hydraulic
virtual
diversity
##liver
##esa
ft
##apolis
##aham
##pted
privile
max
brokered
##itz
##pers
discovered
##ags
vulnerable
compati
208
frozen
slot
bow
geographical
authorize
donald
recycling
340
insider
older
throughp
http
captioned
destr
erisa
repe
applicant
tdr
rural
330
grid
212
designate
cru
##priation
contracting
bea
176
referenced
##iled
perception
189
rmbs
173
securitized
injunctive
chains
rot
##40
motions
deems
finite
correction
##mont
marc
disord
therewith
245
rehabilitation
noncurrent
debit
screening
connectivity
207
notices
variables
geological
ask
##can
narrow
allegheny
##yr
preserve
171
unch
lux
throughput
##cap
##itzer
treating
##fi
ban
303
##nc
##ulations
underwritten
##actions
stress
169
950
##urg
trigger
journ
##ystems
##eland
redevelop
viii
pensions
yen
##ompass
##tech
scrutin
2024
predominantly
synergies
##agen
##mented
##oco
kick
##tina
coffee
marked
##revoc
prote
oxy
differential
flight
abroad
irrevoc
nrc
##ami
opt
compare
825
burd
disaster
pione
##thing
ngls
ridge
amortizing
cul
182
securitizations
cook
latest
mandated
concession
unpredictable
encompass
cath
preventing
breached
minus
que
181
174
fluid
sublic
remediate
unchanged
negotiation
expressing
222
ontario
rod
186
177
franklin
explan
hall
hur
overseas
persuasive
safegu
##liquid
optic
pg
##estr
##ensus
promptly
delinquencies
defenses
anderson
vacated
groundwater
maker
178
##usal
##overs
##insured
##ora
jpmorgan
hp
alph
alex
##issued
puc
experts
183
##ilton
completely
immune
circuits
temperature
shortfall
soil
appraised
desire
optional
##adelphia
##andard
480
##ife
184
intensive
philadelphia
dip
beneficiaries
campaigns
clark
opposed
chronic
tract
bh
globally
##ses
eleven
crisis
consultation
injunction
zone
##tings
airport
estimable
shale
bol
##inos
cigar
sce
ends
##ding
ratif
fifteen
interval
findings
depress
netting
announcements
304
turnover
##rich
servers
##tl
hydrocarb
##eastern
sevent
##itude
pocket
prej
signals
235
425
hd
retailer
gmb
##ho
refinanced
cure
eurod
ferrellgas
hudson
lots
urban
##amed
allied
incorporating
##cast
kel
homebuild
eurodollar
tep
depositor
transl
prolonged
quest
##afe
##ots
outlined
illiquid
versions
tight
470
vent
discounting
allege
explore
cosme
salt
179
downturns
airways
leave
analyzed
##eli
290
referral
judge
unexerc
##lon
investee
started
##ris
##proc
gmbh
edward
representation
stead
protecting
nan
keeping
fluctuation
antid
christ
confirmed
##olve
appealed
email
inquiries
fidel
##otherapy
employs
##iced
gases
bone
provisional
vene
roc
retroactively
aftermarket
##ince
innovations
##sey
hurricane
brad
lifo
365
molecular
229
dor
motivate
##ears
hyper
410
usd
##arios
logo
damaged
liquidating
inventions
carl
##ligent
faces
ceiling
diego
fertili
restructurings
##usting
lu
justice
ensuring
forb
wrote
reaching
optimization
transpar
article
##mers
216
edge
jv
mixed
identity
kickback
catastrophic
nitrogen
handle
carries
retiree
checks
dialysis
virtue
anth
insight
crown
suffered
spa
gov
racing
printed
salar
scenarios
fidelity
214
364
titles
exemptions
hurricanes
village
maine
##itt
ranged
aus
##ochemical
##pts
##jm
leh
hawaii
macro
remedy
232
salaried
weld
analyzing
supplements
cleco
##ilian
fracturing
bb
ice
disburs
berry
##tibles
outlets
academic
liter
2025
inclusive
##amm
montana
xi
##heim
arc
corrections
##ime
##dale
285
cents
##inder
##ede
##till
pharma
denver
chart
##rix
666
##istent
intelligence
accreted
antitrust
excessive
breadth
certify
replacements
brew
expressly
linc
strengthening
alaska
334
##iph
footwear
255
withheld
eventual
casinos
desirable
ff
aa
hsbc
portable
lawful
209
easily
ter
manh
wareh
##lusions
##sell
parcel
##ensing
##ignment
##bury
involunt
seal
dead
anticipation
stopp
unavailable
##etermined
exploratory
packaged
samples
scrutiny
benefited
theatr
##arketing
cft
##book
##nr
##osc
otti
##econom
observed
proto
titled
policyholder
outsourced
regulates
ple
count
##attan
ram
##pine
reward
engages
211
fel
recommendation
swiss
##utr
comparability
expended
lag
ars
vaccine
interconnection
##ged
warehousing
##onomy
380
roles
adjusting
engagements
discrete
tac
precise
##ificance
kenn
tanks
scrap
parameters
wealth
allocating
collecting
selecting
implic
town
##houses
founding
##uling
##aker
whereas
nationally
##ophy
ordin
##soe
privileges
satellites
##cor
manhattan
wes
fu
##xi
wastewater
leveraging
alliant
dp
helps
deliverable
announcement
exclusion
visual
218
sty
implant
luc
concurrently
routinely
substandard
bif
##hai
inaccurate
uninsured
tic
summarize
burdens
sat
nonperformance
participates
##fare
triggering
significance
mostly
importance
franchised
placements
##tiveness
od
sufficiently
isol
345
drama
420
pilot
ages
segregated
registrations
jeffrey
converse
switching
pma
wag
interference
aig
statistics
inactive
aoci
##orrect
decree
matured
analytical
jewel
asserting
incorrect
vsoe
##ustion
cay
prejud
streams
away
406
provinc
agriculture
seed
jet
##limited
dna
deducted
lng
265
examples
consolidations
az
graphics
cftc
##alt
dow
221
##osen
distributing
stored
boeing
generators
constituted
233
475
questions
##rd
unlimited
hipaa
classifications
processors
remod
##wc
requesting
##win
depreciable
balanced
##augh
allowable
highway
lae
525
abandoned
nil
238
ghg
venez
antibody
feedstock
##gn
modest
pm
madison
nominee
gateway
prototy
disadvantage
lor
amounting
217
cars
##ura
analytics
213
##kr
lengthy
228
301
cann
voted
pronouncement
aes
wyoming
viability
dealing
unad
equitable
magnitude
palm
##awn
##esign
gary
##wid
protocols
sul
atlas
consequence
campus
antidil
reimbursable
##aper
terminations
ci
instructions
proxim
auth
incons
##base
biopharmaceutical
originating
ups
checking
##atric
##cla
##yer
payers
brothers
border
##di
conclude
##artis
outages
garden
escalation
holly
omissions
venezuel
budgets
wrong
sier
conclusions
views
driver
si
##99
apple
##ography
##width
##nis
prejudice
earliest
creditor
##etes
##24
deleg
##mart
##aving
marri
entitle
chris
beverages
lodging
encountered
ease
signing
224
portal
##mpa
bandwidth
unfair
classifies
deployed
219
407
memorand
sizes
050
remun
enforceable
tu
248
easy
triggered
radiation
reposs
237
sugar
np
spain
##tery
approves
veter
fpl
chosen
seattle
ru
regulator
##lable
slowdown
fredd
##inson
salvage
redevelopment
hugh
noncancelable
han
injuries
interloc
refusal
bound
outlet
rain
unsafe
municipalities
440
hous
distill
willful
famil
farmer
560
315
philos
##atri
talent
405
culture
exha
##ls
diabetes
groc
##life
305
##aton
pioneer
merck
db
converting
apparent
dynamic
geographically
##livered
va
summit
227
sample
violate
freddie
commens
223
##oln
attempting
unexercised
prevail
##ancial
lip
##iner
rewards
repeal
domic
##aluation
scot
evidenced
davis
842
retirees
conversely
lakes
greg
stone
alt
fred
patri
route
zeal
##mits
argentina
qs
suble
alcohol
bringing
audience
pulp
corrob
traditionally
remuneration
absent
370
234
interchange
outflows
ric
pjm
journal
236
cooling
##illance
eye
identifies
surveillance
sho
executing
taxonomy
patriot
mortgag
negligence
watch
technique
visa
viewed
##oning
foss
226
zh
231
averaged
undelivered
bore
complic
wild
meters
instituted
zealand
imper
mercury
355
sierra
fri
##gor
##onduct
##ais
asian
waters
society
outpatient
1979
cuts
##night
combustion
metric
mcd
##fort
##ylene
##itage
acted
selective
pes
860
marriott
244
allen
repos
strip
##bean
concepts
anchor
hep
codes
##bell
3d
passive
misconduct
chemistry
graduate
##ws
surge
dere
leads
symp
recept
duplic
goldman
lincoln
franchisee
advantageous
jac
##justed
##tious
##nh
cleaning
recipient
commensurate
##atriation
domestically
strain
towers
engineer
perf
mb
combine
griff
##vere
schw
situated
249
##inger
province
pec
marsh
successors
242
##fication
neigh
neverth
nic
sir
nevertheless
pollut
dismissal
pfizer
manual
memorandum
withdrawals
mitigation
aqu
promoted
frac
1978
##ancies
imports
clubs
1st
attainment
252
novartis
rebate
repatriation
regulating
miami
unadjusted
discrim
reput
co2
sj
curtailment
imposs
threats
stronger
##een
speeds
plug
262
246
256
subordinate
disposable
irrevocable
ceases
profitably
dilute
treaty
ronald
impossible
driving
##ulin
distributable
prohibiting
##wa
wp
335
citigroup
##ologists
ken
forces
mirant
unitholder
##uce
courses
uranium
nations
tampa
height
247
modeling
pt
wach
forming
families
redund
indicating
replacing
graham
andrew
span
243
fossil
connections
840
confirmation
copyrights
creative
253
protections
principals
abbott
inflows
predetermined
##financial
##17
restricting
alloy
cautionary
elects
257
bou
leach
##vin
312
closures
directive
422
left
409
downgrade
interpreted
oz
desktop
heritage
1974
##50
lend
fax
##hal
263
402
390
brazilian
citibank
unsound
appli
disallow
tar
advertisements
rolling
ubs
286
philosophy
firstenergy
266
roche
##iate
isp
##enz
pitts
placebo
protective
344
##gar
pik
ceding
ranch
receiver
plains
stipulation
##14
antidilutive
nond
##prac
switzer
propor
264
cryst
paralle
recreational
bbl
shang
258
hazards
formulations
blackstone
revoc
navig
##uk
neighbor
formally
delaying
incumb
financially
orle
dual
theat
inland
##afts
##illy
switzerland
575
gb
severely
lapse
295
commissioner
underwriter
footnotes
326
positively
seriously
inflam
biod
orleans
460
prioritiz
272
antibodies
failing
supersedes
austin
incurs
cayman
ineffectiveness
blocks
##leted
grace
healthy
deferrals
##oller
nrg
nco
##ovia
wholesalers
501
##ivided
achiev
superfund
rog
cast
268
316
520
wish
oci
fun
##med
276
254
renovation
dish
239
ballo
##vereign
sovereign
contaminated
orange
dereg
##ominium
fragmented
liqu
strengths
##ops
##rex
coatings
definite
##works
overnight
telem
##erald
concrete
inflamm
ent
gallons
unissued
condominium
cercla
compromise
##nor
proteins
323
pinn
involuntary
715
overdr
elev
telephony
241
##mex
investigate
##mann
matrix
308
payor
confir
reseller
arises
get
##eca
267
mmc
indemnified
##eller
wachovia
resum
locate
describes
274
viruses
compatible
eli
assemblies
jury
jewelry
##berts
hughes
proximity
mv
##ym
gem
commercializing
entitles
##ova
conference
415
genetic
specialists
disorders
subjected
breast
feasible
placing
281
287
##icks
##ecs
monte
ov
hampshire
ipr
mh
menu
251
appliances
obligor
##olic
855
oxygen
tru
rare
336
parallel
288
laur
russell
lc
entail
voip
mas
ball
277
hartford
equip
bs
repatri
pinnacle
telecommunication
430
wine
##ector
adjusts
retainer
kenneth
nonvested
269
malays
cgmp
fd
french
lex
multiples
hiv
defaulted
terminating
confer
latter
turbine
combining
fertilizer
quotation
##what
ticket
261
bidding
accessible
##applic
##rock
highlights
attendance
506
cardio
sharp
ads
incumbent
mge
transferable
russia
containment
##13
differing
messaging
332
540
##aylor
parc
259
dac
##economic
424
competent
marketers
306
##imen
##ull
replaces
consensus
nebr
##ini
##ivision
diversify
nebraska
library
shanghai
292
313
restricts
273
seen
##icians
fy
literature
283
charters
comes
divested
spir
296
337
278
welfare
rational
delivers
density
verification
rulemaking
soundness
wpl
somewhat
pad
##utch
282
correlation
##burgh
upper
sv
periph
gues
cutting
##lc
infringed
##green
submits
adult
##know
##atorily
modernization
responses
subtop
trained
jan
salton
unen
cancellations
examined
undivided
##wick
prosecution
peripheral
##imm
##ervation
##istar
slower
too
platin
remitted
recap
ath
chips
arts
hr
mandatorily
nv
magazine
interbank
##boat
##iveness
ell
append
rescission
385
databases
misappropriation
lumber
##tz
ende
dispro
severally
##ira
thor
sap
precious
##bro
284
syndication
style
##fb
homebuilding
aggressively
subtopic
slo
wilm
dm
investigational
castle
##backs
wet
warm
338
valuing
sixth
players
hc
depositors
##tar
##tec
readers
platinum
imported
transparency
nd
##entic
mit
##espread
widespread
311
##card
403
pig
lehman
denomin
hm
zinc
harvard
disproportion
leaving
unenforce
##yco
sach
##room
mart
captive
megaw
correspondent
oreo
##gp
newspapers
discharges
##zyme
paso
pick
314
nonfinancial
##emia
philli
substitution
lifest
deductibles
insure
supplemented
vacant
##uan
warranted
nutritional
grocery
publication
sac
##nam
##town
271
inconsistent
reassess
remodel
acknow
sustainable
rsu
##repres
predictable
consistency
occasionally
279
lith
expedi
sure
minutes
##cher
299
##15
communicate
parcels
##ja
occupational
colon
patrick
conversions
##acon
realizability
exemp
nox
##ket
368
pci
294
cleared
##acom
##19
whit
675
syndicate
sig
advisers
383
##ener
ak
cubic
euros
##eman
henry
swe
verm
##odes
##veland
random
declaratory
kwh
grounds
##troller
wilmington
explo
expressions
##nb
reinsurer
visibility
##itorial
nymex
enforcing
inapplic
describe
arbitr
307
convenient
specify
##btu
352
640
balloon
ah
dd
lawr
gil
story
cmbs
317
ingredient
770
##osion
##hares
arms
bor
sourced
attended
sod
recalls
coverages
roof
introducing
324
bcf
belg
##cept
misrepres
636
destination
##ius
dun
inapplicable
shifts
answer
newspaper
##flow
images
incidents
distinguish
ultra
concentrate
##shore
sears
sublicense
bern
lawrence
530
##ostar
298
persp
720
exact
lan
tendered
interlocks
inside
##iang
328
varied
outsource
lub
consents
burden
##ophys
batteries
attack
##away
2026
facing
tabular
timel
322
1977
forty
##arry
318
guest
upc
surveys
##keeping
coas
rentable
alternatively
customs
corroborated
374
respir
ef
##tv
finra
volt
wheel
##hr
designations
##urc
campbell
297
willingness
##pb
tes
taylor
##bound
forbear
guests
##etime
enrolled
wave
nsp
greatly
motorola
tci
invoice
293
neos
aps
transported
triple
vast
veg
excellent
mur
289
appendix
biolog
specializing
##inas
magazines
##itech
recruitment
##netic
passage
rj
impede
319
##res
pose
undergo
holdco
surcharge
##ball
clinics
brain
725
splits
came
580
noncash
##lock
denial
theft
fifo
##lington
hereunder
circumvent
ruled
footprint
partly
alpha
327
initiation
transit
enjoy
swed
modular
referrals
##oul
saw
authentic
mortgagor
##ken
microw
psnh
originates
aaa
##opic
custodial
cardiac
##ece
##tek
rom
wit
##ych
authorizing
sachs
dean
490
explos
##ires
aimed
##otal
309
cpuc
anthony
spouse
accomplished
ships
tam
intervals
##electric
1976
##ko
optionee
drives
undue
safeguard
##lion
compounded
enron
exped
343
349
coming
##ias
arb
##22
sensors
cater
beij
columbus
##cape
cil
291
##iliation
licensors
dair
disk
parks
emc
nbc
derives
##hire
##ifer
##vascular
beijing
##udc
##markets
preferential
680
ftc
interior
camer
##idian
##fers
subd
348
kim
##des
intens
teach
simplified
ral
kir
rivers
##iley
cleveland
td
lowered
##arket
borne
morris
mell
pedi
putative
diminished
##omic
351
cot
331
kar
proof
660
fabr
calpine
circulation
363
clearly
nstar
linkbase
##hou
dynamics
knowing
undertaking
##pat
hay
329
illeg
##67
comptroller
620
bit
discoveries
studios
321
migr
modem
cinc
##vo
yank
adher
proportional
phased
346
asph
395
ferr
##elson
remeasurement
jp
complexes
abr
alber
remitt
tas
lung
##cra
pollutants
##lan
phosph
##ained
howard
footage
vests
allot
withdrawn
transitional
358
overl
allocates
sixty
chen
760
warehouses
litig
soy
##ridge
consumed
neutr
aside
435
migration
cooperation
liver
mmbtu
ger
faced
408
357
366
aur
##aven
guard
variances
tom
successive
graduated
423
awa
##hn
seam
projection
variance
##tress
conv
trailers
hollywood
amen
cardiovascular
polymer
353
342
pharmacies
echostar
niche
tp
pittsburgh
confirming
contest
plasma
eq
exploring
universities
session
flash
444
372
afudc
##agon
shr
waive
winding
775
cnl
israeli
microwave
coastal
mini
upward
lifetime
philipp
og
reservation
callable
##astate
347
cord
psi
franchising
495
shops
configuration
compute
intrastate
greatest
verizon
unproved
##ato
computations
farmers
barb
cem
002
eventually
disposals
354
dl
harvest
bids
416
jon
contrast
spare
genes
bge
pmi
chev
##80
tun
affiliation
ko
shore
dairy
ethical
sle
depositary
springs
uc
##loyd
outage
increments
automob
advanc
515
extraction
diminish
610
339
automobiles
sampling
hop
##thr
##aming
504
025
layer
412
houses
median
tailored
##ahn
inhibit
kem
367
plate
enhances
362
suites
437
xii
overc
refineries
eb
411
syndicated
mitigated
##ervice
cincinn
continuity
powder
570
illness
pooled
417
transfere
cincinnati
aro
api
ago
invoices
clarify
630
evolve
scheduling
invoiced
356
unconditionally
428
sands
##oters
reading
emea
strategically
malaysia
transferring
361
matched
rulings
445
##power
mutually
wilson
claiming
robust
thirds
preced
roberts
enrich
465
module
##etric
tva
pumps
derm
##amin
pier
cu
crm
filter
yankee
msrs
comfort
##ste
beauty
2027
laundering
erp
recipients
##jo
tire
##isource
##ela
386
earns
nos
multim
##ledg
comprises
assembled
sympt
aic
astr
##quis
preclude
totals
illustrates
##erb
promoting
##xon
830
recons
viv
snow
subsidy
asphalt
nbsp
##america
brian
makers
##ona
argu
fraction
curves
unenforceable
fractional
stayed
divest
afforded
388
refurb
invasive
petrochemical
bab
trim
portland
##willing
installations
comment
formats
ninety
438
455
eme
unwilling
fault
414
surrendered
priorities
lowering
redesign
##ishment
fulfilled
cannab
moore
##60
##uster
bt
zoning
419
gallon
##tinguished
eld
ccc
cros
dub
midland
scenario
384
infusion
earthquakes
reac
485
555
showed
closings
picture
hands
lifestyle
ira
##isters
535
warning
wafers
1000
anda
##las
cement
piv
399
980
broadly
onshore
376
solicit
kev
biologics
intermediaries
suburb
phones
##iciting
definitions
##gate
auctions
##vs
soliciting
stake
cataly
##ilateral
pure
dimension
berg
gained
bruce
responding
429
341
twice
kits
cruise
bundled
tranches
publishers
##emont
##ettes
cess
resin
359
##opher
397
999
millenn
validation
procure
corning
gmac
975
005
grades
shortage
leon
##othy
vascular
cashless
overseeing
teles
141r
dol
833
counterclaims
369
disclaims
backup
cosmetic
forbearance
subp
aspect
indemnifications
misrepresent
row
499
roe
anten
ue
mellon
387
rab
394
coordin
heightened
##iders
##tex
berks
reag
377
shorten
mgp
nortel
960
pursued
483
turnar
send
378
381
profiles
925
##iliations
want
naic
marketer
icon
variation
reconciliations
perspective
vista
acknowledg
371
itc
##oduc
##ella
bacter
revocation
gluc
503
coordination
eigh
mck
arose
398
##onic
christopher
373
##opard
clearances
##plan
noble
convention
780
optimal
payoff
drin
responsive
730
396
vict
friend
fluctuated
builders
positioning
separated
bac
dining
respiratory
lasalle
reforms
rbc
590
directory
##inqu
##umbered
418
personally
deconsolid
432
670
running
413
metab
openings
jeopard
baker
achievements
rubber
##isure
cohen
##oca
458
##nett
##tinent
blu
737
noncon
985
medi
rigor
cogen
512
##reens
379
##agg
recapture
454
capped
moneti
likewise
realizing
logic
hew
labels
earthquake
relinqu
doj
window
nt
##ibb
##haw
suitability
budgeted
tape
crystal
exposes
accumulation
chlor
basket
thorn
southeastern
##alone
investees
horse
wayne
fluids
##isse
##earing
reorganized
foster
imposing
stabilization
reposition
defective
mead
analyst
leisure
contemplates
molecule
draft
##ometr
920
##zed
constituting
##ults
436
392
dock
devoted
rio
915
##16
##artz
dispatch
instant
940
##lie
arrange
processor
venezuela
856
hosted
##timore
inflationary
462
accountability
integrators
amending
millennium
ppa
reflective
prescribes
lew
##web
433
##uns
succeeding
unclear
888
rc
46r
les
389
##alian
880
feat
philip
showing
447
injunctions
##iors
raises
corner
sooner
kkr
##onto
507
452
labs
ratemaking
charitable
dvd
bdc
structuring
fabrics
##iliar
theatre
personalized
matthe
gave
selectively
##18
provincial
##45
constructing
baltimore
attribute
502
petitions
nord
shutdown
macroeconomic
ones
headings
dietary
##ool
intra
lottery
cdn
lad
oxide
berkshire
690
exercising
10b
cant
illegal
antig
kevin
tree
strive
denying
diagnosis
founders
427
multimedia
belgium
disbursements
1970
468
439
army
stranded
##othermal
mrs
##tration
545
tablets
536
##livan
##iann
##lip
movie
vaccines
##cle
haul
tdrs
interpre
taxpay
##hth
alexander
intervention
notify
upgraded
inpatient
##usa
owing
hab
615
##tium
touch
critically
##cars
holl
theatres
standalone
nap
orland
insolvent
466
075
##pass
prototype
##quisites
psych
##here
dot
species
cfc
393
trucking
stipulated
inject
subdivision
gregory
sullivan
quota
cfpb
reconsider
701
neo
traden
pncmsc
reputational
amortizable
dennis
replic
dbs
accidents
563
442
456
426
448
unsu
transact
835
resistance
farms
figures
digit
bax
562
buc
tumors
stoppages
opposition
ordering
571
##ao
457
bla
accepting
727
ion
434
rolled
disputed
##lett
vital
pediatric
wireline
energ
ross
reliably
##abl
391
tul
484
488
##omo
upgrading
sinking
476
003
race
464
kid
medicines
##eton
ons
hinder
pictures
competitiveness
infection
catalogs
repeat
802
geophys
presenting
orthop
487
565
##edic
##yers
ee
detri
subsidies
##ador
officials
cessation
##ales
toronto
513
matches
421
honor
524
sip
adams
atr
0001
##arc
##evalu
##ulating
virus
494
dex
nash
538
478
hv
##enson
contacts
explanatory
brid
dress
##lyn
da
496
##box
denominator
subpoen
alan
fell
relie
yielding
timothy
wear
contributory
metall
survival
seiz
463
479
imbal
767
lac
locally
psus
powered
lasers
abnor
chile
ascertain
improves
complies
absorption
conditioning
ches
##gment
528
responded
realignment
467
floors
child
cured
gel
npc
##urrences
orlando
printers
517
meter
wmeco
miso
##ula
commercialized
untr
claimants
governors
indemnities
settling
mari
hydroelectric
native
ceram
transpl
##vis
787
vermont
mpsc
747
518
469
receptor
710
446
progressive
453
lloyd
##ogene
resolving
##incorpor
condens
hydrocarbons
516
homeowners
ramp
##priate
assignments
carib
peru
purport
mitch
##side
##ache
rescind
smok
482
##assis
##amex
prps
worthiness
542
472
decor
differentiate
dramatically
rider
ministry
prohibitions
biodiesel
underperform
specifies
fruit
railcars
cham
##85
directv
443
cdo
sensor
quad
449
604
navy
##ulty
rt
595
corrected
dosage
carolinas
refriger
promin
imperial
brist
sud
##ez
brun
deny
pleas
474
714
receivers
585
ksb
556
agr
dict
493
enjoin
cds
##ciences
##osa
497
afs
##haul
##tree
boy
508
amex
beer
declaring
calculates
##anger
nextel
665
untrue
##ornado
overdraft
anton
freed
##roit
phillips
509
532
fluctuating
431
vog
alberta
20549
##md
perquisites
##pes
factual
##any
encr
simplify
restore
602
resistant
affirmed
circumvented
laz
471
cri
falling
080
cbs
detroit
attrition
526
gd
freest
switches
790
observ
gi
486
clay
interse
441
hereinafter
griffin
554
differently
533
##try
counts
deconsolidation
tenth
498
sponsorship
carly
fh
scalable
pertinent
##stated
870
subordination
hunts
generator
seventh
##alm
titanium
evans
635
mesa
arranged
runs
supplying
residence
sant
911
544
mandate
stabilized
fat
459
tap
rigorous
warren
geothermal
477
finishing
##alk
boxes
overriding
carlyle
deductibility
intersegment
451
529
radioactive
489
cox
473
luxury
481
disclosing
##yon
724
ports
sund
shortfalls
outl
admitted
004
tooling
cpi
492
recoup
filled
indones
synth
occupy
514
pivotal
masters
##burn
##aine
sor
##south
investigating
expansions
765
hack
contributes
verify
occurrences
toy
gsk
unconditional
documented
522
noteholders
emphasize
dealerships
narrative
752
583
breakdown
hunting
reaches
tec
rocky
##icts
xm
thorough
carlo
weakening
kitch
##iden
amenities
kle
administrators
beta
toys
endpoint
oversees
saif
645
arg
704
##ram
kron
oilfield
subcontractor
015
637
cliff
020
formations
rejected
went
accompanied
reinsured
668
travelers
930
thail
990
signs
paragraphs
capitalizes
foundry
hole
thailand
oracle
cw
531
##bec
counterclaim
857
##erica
nonemploy
gc
beliefs
sq
prp
attempted
##ries
emerge
mobil
572
cmos
che
mailing
craig
humans
890
lane
461
foodservice
philippines
##apeake
cancers
pin
040
attained
swing
##zhou
##no
chesapeake
friendly
527
strat
instrumentation
metro
anad
561
champ
demographics
cole
801
questar
777
##urgical
contrary
funeral
688
simon
landf
521
disclaim
685
consor
graded
970
appliance
##pan
preservation
608
2028
quantify
forecasting
blended
maximizing
702
##zation
prostate
enforced
549
semin
nets
546
magnetic
suburban
domiciled
unim
pacificorp
preval
constantly
sporting
assay
railcar
hi
remittance
interaction
grains
612
nova
##ched
equipped
##ocon
519
download
relying
ics
##brook
523
christi
bdo
lessors
##funded
semiann
combines
inducement
553
662
grantor
math
interfaces
supermarkets
511
workplace
##ectious
segregation
##omics
papers
##izable
metlife
flag
##vine
reconcile
adhes
fires
analyzes
547
910
aimco
ri
rena
616
552
icc
conforming
interfere
##otech
fdicia
doses
compact
leak
solvency
substitutes
coinc
netted
##phone
telemarketing
##osh
lewis
spac
infectious
pap
encouraged
titan
countrywide
crossing
534
raymond
588
thornton
dosing
fp
070
destruction
##onics
vic
745
neutral
564
examine
refunded
##anda
speak
unified
pari
reprice
576
necessit
566
##inox
distinc
amplif
ratification
incomp
ld
##fuel
inquiry
contempor
mineralization
symptoms
intelligent
specimen
##omed
568
lind
insulin
suisse
infections
cannabis
manip
beds
streamline
cotton
##ieg
ih
numbered
monies
##lete
698
exter
brings
537
##aris
allerg
defining
reve
inser
remeasured
bm
unpat
491
regards
945
endors
newer
participations
1975
reliant
histories
populations
##leton
735
mobility
##payment
fitch
so2
543
ali
residences
ome
studio
pty
bbb
tast
633
baseline
557
aum
##atts
607
596
010
567
coach
##ared
##ecur
712
603
##entech
reconciles
scheme
655
unlaw
unlawful
##aties
predecessors
undergoing
mcm
656
559
tot
646
548
branching
##bra
genon
##lose
renovations
##rise
##zo
gord
539
ammon
balancing
compell
609
otcbb
##phy
hilton
##ently
fried
treaties
commences
632
larry
852
reader
administering
060
597
bifurc
rv
705
noi
shel
##iere
##uter
ordinances
vin
bally
satur
tour
visits
lilly
##ague
chassis
577
##uss
towns
comcast
allotment
verd
617
mitchell
charging
##ableness
tand
##iproc
##boro
##arian
reasonableness
624
##ikes
inhibitors
voltage
idle
648
578
veget
multin
swift
ounc
ounces
gt
bankshares
edwards
21e
mastercard
dw
584
kg
rehearing
713
reversals
richmond
persist
biologic
619
587
helped
posting
eliminations
glen
tyco
reciproc
551
dispositive
ipc
703
cambridge
buffer
scientists
promised
##fg
##hawk
chemotherapy
amc
558
695
behind
mandates
574
coordinated
dsl
elections
professor
neighborhood
kais
wors
investigators
756
hamilton
molecules
diver
stark
687
wife
umb
##uous
gpu
minimizing
586
mirr
horizontal
knowingly
demonstration
716
accreditation
rice
y2
mri
fnma
oxford
592
593
transplant
##wall
meritor
kin
myers
shrink
override
nick
caribbean
contingently
759
613
recycled
##oria
##tist
wyn
626
chick
multinational
inhibitor
cola
coke
##uard
ninth
turnaround
filtration
temperatures
mmcf
##bel
algor
mild
adhere
foreclose
717
servicers
889
screens
landfills
turnkey
##avors
cib
##ua
familiar
cyt
##iction
618
bright
assort
thomp
672
condensate
030
845
apprec
582
strengthened
##arko
suggest
shortly
ibnr
bayer
652
##ograph
cigarette
payouts
panels
novo
asked
fi
propose
deregulation
755
eighteen
genco
599
kemper
##itives
644
579
activation
##iage
813
kaiser
jay
757
905
conservative
appell
geophysical
helping
depressed
629
##000
573
sleep
594
541
mba
##omer
links
##jet
assists
732
thompson
unregulated
choos
beef
818
569
departure
642
634
785
##omac
##aired
renmin
player
aligned
622
encryp
##aha
stating
northwestern
floods
resins
972
conduit
##ager
correl
usual
zones
926
broaden
algorith
patron
refuse
598
removing
654
628
push
##bility
614
sppc
differentiated
bun
623
nh
unpatented
cinergy
fha
faa
english
007
707
satisfying
reo
surcharges
postp
647
anadarko
unrec
pear
##issance
rd
barry
minne
728
voy
tribe
amortizes
contribut
jmb
ophth
derecogn
vacancy
wi
##ni
##lotte
rim
corrupt
mason
cogeneration
627
forum
pursuit
consortium
tasks
overlap
804
669
simplifying
795
xcel
crew
638
behavioral
deepwater
smel
##elli
enrichment
589
routes
hair
sew
equinox
stev
778
animals
opeb
658
airpl
##axy
valves
angi
bristol
##lities
cybers
licensor
006
deciding
995
walter
aol
sweet
##efr
692
recommending
643
1973
035
ozone
812
kinder
gradually
pine
ashland
thcr
722
wam
adherence
boat
##olds
jcp
##boe
volatilities
charlotte
grove
##rc
689
crest
presentations
exac
disney
##isk
abilities
pseg
aurora
tends
inflammatory
808
##umab
tag
tickets
coated
twe
696
ces
indianapolis
abnormal
additives
branding
prioritizes
##idium
score
renminbi
ambac
appoints
paint
kit
transformation
917
664
noise
irc
surgeons
augment
aids
0330
657
paris
quebec
collectible
708
##heimer
potomac
shock
hb
administers
611
deadline
reacqu
msa
russian
pdc
944
transactional
pink
betterments
distressed
809
653
listings
##ogle
disrupted
13d
932
sued
accessed
revaluation
693
##enter
729
barge
678
excellence
heartland
858
dell
965
mount
corru
induce
patr
marshall
##ofi
##oring
803
conditioned
ratified
##ala
necessity
hope
wolf
omit
sunrise
roch
##licit
perry
mode
mountains
suns
reclassify
sudden
738
##tra
631
639
custody
minneapolis
command
factoring
##grad
mu
watson
employing
##33
proportionately
implications
938
promoters
vertically
overruns
gn
##estone
649
galaxy
090
##erated
exacerb
ophthalm
descriptions
##vance
651
909
piz
746
684
885
passes
##sen
applicability
bag
661
##aca
assays
timefr
581
centerpoint
591
##essors
998
interconnect
desist
##eda
663
discontinuance
arrive
oct
tan
webster
omega
finish
google
##ptive
quant
carriage
621
doctor
wound
handled
yearly
freedom
hans
gab
##upp
robo
lift
776
dar
contamin
##berger
nw
clinic
marketability
768
##ila
679
fragr
multiplying
uncomp
weaker
empire
697
cinem
pel
intensely
##cience
734
nl
households
946
shap
sweden
rcra
814
641
##ysler
biomed
designer
902
foreclosures
nab
shield
hk
switched
754
706
674
045
skill
bod
677
##wave
008
dutch
appal
readiness
865
disposing
regency
##points
719
extensively
unbund
pbf
676
937
gastr
884
entrants
##uate
fedex
boule
inappro
##ifts
tube
boil
1972
encum
##eep
723
bookings
reservoirs
meridian
downtown
orb
icahn
procedural
895
incidence
kap
saving
linear
751
726
disproportionate
cow
794
826
834
delegated
renegotiated
wider
nonmon
exploitation
711
##len
easier
fico
hydrocarbon
806
832
developmental
##prime
749
nonmonetary
electing
systematic
storms
659
reserving
matthew
012
##oker
spill
904
randomized
ls
083
som
redundant
opco
781
interfer
domin
##sex
assisting
758
743
bend
genentech
673
collar
seasons
coins
##lier
ks
montg
ky
boulevard
##eline
poland
mcg
dissem
##osphere
686
repossessed
canyon
lion
744
cec
683
renamed
mes
872
##omery
011
682
sanofi
prox
769
##essional
montgomery
parker
seamless
glucose
694
stack
773
turbines
ethern
##ennial
ethernet
772
mortgaged
certificateholders
786
prescribe
864
lum
uscf
undr
coin
tubing
actuaries
gear
085
dominant
##isen
actuarially
##anco
oils
dissolved
fluctuates
##alued
##wart
downgrades
784
761
##ecurity
seab
009
appalach
infre
bloom
exports
competitively
unanim
##endum
colonial
church
782
762
912
##asis
##adyne
jefferson
fis
816
endeavor
jurisdictional
specialist
733
verdict
883
encumbr
788
699
955
847
styles
2029
##adium
csfb
783
866
##lantic
southwestern
##tility
rp
effecting
formulas
731
##rea
baxter
797
846
055
fibers
##person
imprac
cna
##wich
visit
923
764
costa
792
huntsman
817
hung
cigarettes
rhode
681
freestanding
848
meritorious
753
928
838
913
predictive
malls
km
roaming
onto
##dy
salon
colom
yel
##ogenic
rjr
constell
hydrogen
thirteen
wrongful
permission
##lers
thermo
invention
fortune
relocated
nn
holes
constructive
fuj
wagering
935
671
admission
fusion
worker
862
semiconductors
736
theater
828
catheter
pathway
ol
##marks
exploit
gramm
packard
##ren
retirements
##tide
teco
##uity
coron
936
##alo
shippers
proactive
customization
##statement
pent
844
766
preemp
audi
843
erosion
mack
constellation
877
appellate
freely
viral
837
walker
##annah
holidays
##tition
infrequent
836
##fp
depleted
underway
reaction
permian
roy
748
807
cabot
steady
ineffici
tolerance
882
antonio
modifying
wend
016
822
742
blend
##atitis
transmitted
mwh
ng
click
##ocy
xl
aler
laundry
equaled
##owner
823
##tica
xx
739
rg
coordinate
sym
feedback
##abs
corruption
033
night
##wind
lm
landscape
crow
antenna
chrom
wang
discrimination
chevron
void
unrest
invalidated
bd
enforceability
901
774
kw
indonesia
863
baskets
lithium
leonard
##loyment
imputed
793
revlon
709
908
779
specializes
disciplined
levy
cav
rb
reevalu
2030
osh
gray
decade
018
##sch
cisco
environmentally
tcja
956
996
trailing
992
824
fue
##pto
arp
transporting
pic
aca
##autions
##phi
##rued
txu
##chron
tort
murphy
916
##thold
colombia
sps
914
writed
789
799
writedown
065
veterinary
italian
facilitating
lymp
assigns
27a
721
##emens
uncom
frederic
satisfies
totall
oly
oe
anniversaries
facilitates
949
cilco
asserts
burlington
063
796
dy
sher
976
879
kelly
##avis
herc
##emy
considerably
wright
907
trailer
assignee
coh
cvr
gig
811
inspect
penetrate
improperly
fulfilling
867
952
remodeling
centre
bin
##iracy
otcq
airports
intentional
lifec
691
unfavorably
scores
stain
activated
antibio
figure
##atlantic
##stand
grows
dg
##laim
##oney
##olas
nearest
933
elevated
attending
honey
957
##hill
798
stap
jeopardize
compressor
kcp
cornerstone
carm
csc
contrac
tsr
weighting
827
suited
##amination
968
hawaiian
763
premarket
destroy
resolutions
stabilize
happ
inch
blackrock
924
iridium
918
hit
12b
tod
licensure
cres
878
expirations
954
896
868
differentials
##mouth
nonemployee
vogtle
rosen
978
##ae
958
upheld
methane
blow
hearings
nominations
wheat
defers
conveyance
874
903
emphasizes
nasd
neil
fisher
minute
##fl
##bid
859
sony
##brand
771
##bre
accidental
maritime
##atel
filters
927
fcpa
medicinal
olymp
ink
741
989
osi
explained
791
savannah
buyout
sport
americans
unn
hmo
bath
subprime
022
um
northeastern
##estin
adds
849
997
024
013
alarm
surf
gerald
tnmp
flags
ryan
owens
068
eighth
unreason
014
fly
extinguishments
riverboat
934
##hydr
discontinuation
897
ambul
etp
materialize
vp
##immune
##ronics
spanish
medications
stewart
sunoco
chicken
pall
overhaul
admissions
csw
metast
##frame
gordon
markdowns
blind
##elsen
943
839
milk
jacksonville
922
premise
088
831
cybersecurity
##emble
kitchen
sonic
schering
consumables
cass
amgen
loading
ema
893
amt
parkway
fueled
953
dtc
polymers
##men
bat
biotech
door
mpf
routing
821
##ek
819
gla
##etal
evolution
workst
##issues
arab
062
##eners
presum
proxies
076
##rane
capt
##tia
keystone
##uma
899
876
sequential
021
898
remanded
oste
853
977
973
unprof
##oga
falcon
##ateness
advoc
fem
optics
894
reed
983
spaces
019
886
complications
medication
##itas
892
mhz
851
887
technicians
988
017
retrie
##antile
ammonia
inefficiencies
mention
benchmarks
##mes
962
authentication
constrained
rendering
##hand
construed
##vc
emerged
pied
visitors
984
exhibition
986
##inge
reconciling
negligent
967
pegas
##oked
simul
object
939
078
829
vas
geographies
##athon
arrow
##idental
tuition
873
deer
##ouch
966
taj
841
##eptive
hertz
tuc
wherein
994
##ycle
032
lucent
fhlmc
bush
mk
095
##sung
##losed
077
##tronics
854
microc
rmr
mist
948
perc
rebu
discharged
##orm
##ogeneous
consolidates
substr
disab
##hare
tian
993
941
chanc
nonrecourse
942
reconsideration
869
nep
uspto
averages
##just
deferring
wc
hewlett
##ques
919
wrap
##enza
hawk
assortment
lymph
noneth
nonetheless
gps
isolation
remarketing
##vesting
066
##21
grantee
detrimental
orch
tissues
carter
chancery
justify
ranking
handsets
dealership
mbia
reincorpor
mined
jacobs
apl
occidental
petro
replen
053
dyne
depot
portability
987
offsets
provident
resume
harmful
molding
grey
teva
aspen
ant
malf
disaggreg
clinically
functioning
hei
granite
##ran
vitro
bakery
deduct
entrepr
adults
reveal
everest
ccr
appropriateness
messages
##amine
affiliations
mom
871
message
bliley
dif
megawatts
861
##fall
bry
959
clarification
rejection
occupies
929
931
ppas
gmp
collusion
ada
cardinal
furnishing
947
encryption
029
companion
unprofitable
tl
052
gib
meat
cogn
displayed
##elec
african
downstream
042
biology
thick
retrof
entreprene
marathon
owe
921
uncommitted
963
bard
aggregation
float
samsung
misrepresentation
023
inad
rabbi
034
afg
irvine
##nell
##oro
speech
##omon
nondisc
refine
tracks
mercantile
038
wynn
##aves
991
crops
accenture
liquef
deficits
974
poul
siemens
bot
##anto
recovering
shenz
074
relocate
fes
strikes
067
noncontrib
warn
##rin
##quest
bypass
tubular
caa
048
weakened
047
ncm
hurt
##illo
##27
textile
vacancies
027
gec
allstate
kcs
##oor
bail
annex
suggested
881
vulnerability
hoff
noncontributory
nominated
vinc
reciprocal
bhca
##forma
brother
layers
orion
##auer
##eces
wax
explicit
genesis
##rett
extinguished
transferee
fx
citr
barrist
subleases
perceptions
mhc
969
yellow
fortress
demanding
overcome
theme
quantum
abc
reyn
031
numerator
054
railway
alk
microproc
hog
contaminants
valve
##unce
eric
##vie
submissions
expedient
nomination
forgiveness
087
elk
nashville
##logic
catalyst
qui
navigation
intensify
028
earnout
##omy
041
shifting
clothing
shenzhen
891
circular
951
ellis
092
topics
964
ounce
advise
aggregates
vanc
nelson
statistically
precedent
artific
dj
piedmont
architectural
044
governs
##ligible
096
mn
##tors
ralph
##tifies
characterization
##odal
workflow
036
093
omaha
timberland
##real
gly
informal
##health
nac
essex
newport
##ani
flavor
gill
##alco
037
ceramic
##itted
##ibery
eco
refract
spills
defect
orbit
fhlbanks
##rome
064
##oting
dt
bonding
982
electro
primedia
derecognition
beck
##stores
043
configurations
057
##gent
fremont
specialties
inappropriate
979
huntington
hex
cim
058
pizza
bribery
directories
intermediary
##timate
##sea
timberlands
cpp
boats
try
026
reno
hundreds
tenure
endpoints
##irst
072
installing
foundries
rochester
##onder
981
046
vat
beth
cablevision
098
stein
verified
056
baby
069
dal
scotts
peso
084
jer
knight
freeze
##ombin
mitigating
oneok
1971
dcp
libraries
##opy
hvac
districts
dupont
cosmetics
systemic
notably
ew
tractors
059
##eneca
downgraded
subleased
cattle
achieves
fg
caf
ratifying
ahead
kod
hanc
inadvert
horm
repeated
technologically
##inet
directing
usda
##etown
illiquidity
interoper
##icious
##23
demonstrating
collars
otcqb
bri
buck
attribution
geo
roth
upstream
biomass
stu
murr
nonre
turkey
oncor
stimulate
lexington
kat
exclusions
##ils
implants
robinson
##kline
##retable
disabilities
hancock
intentions
devon
delphi
tablet
961
971
subsystems
##ups
bing
dispensing
streaming
##abeth
publisher
triad
hercules
submitting
connecting
##lay
postage
waiting
loop
welding
monro
marina
researchers
grading
bernard
interactions
wo
ward
shape
ifrs
fitz
capit
redwood
settings
adjud
bradley
hatch
simultaneous
saas
ring
concord
##wau
treble
sanction
##rella
repositioning
##employer
exxon
shaw
082
multiemployer
##fit
barcl
airb
corrid
lubric
disabled
batch
##bp
renaissance
marginal
##row
venues
advancement
carryovers
##urable
collateralize
billable
draws
crane
1969
073
dynegy
encompasses
ats
bars
cemet
brunsw
comerica
genzyme
cooperatives
##mons
passengers
entitlement
cemetery
elli
094
contig
reconstr
memberships
popularity
##ringer
edition
featuring
2a
undertakes
samson
##reet
why
compelling
amd
klein
metallurgical
collins
stamp
ast
renewing
086
gaining
exited
##37
lazard
##uum
##glass
aicpa
wnc
computerized
semiannually
fsb
practition
plays
049
##eston
ari
approximating
cream
milwau
foamex
kilow
ply
cro
unavailability
089
aeg
accessing
##mith
undrawn
coca
dlj
mineralized
revoke
eliz
craft
promising
unjust
patrons
##ads
save
biomedical
##far
reconciled
continual
##kel
fourteen
elizabeth
tires
optimized
##icom
##uder
casc
quantifying
drip
duplicate
winning
a3
091
meal
transp
lights
071
039
realloc
snap
bottom
079
##erex
barrier
cede
initiating
prolifer
alc
intentionally
railroads
valero
registry
temp
##source
muscle
heco
milwaukee
unnecess
cush
alcoholic
globalstar
##inatory
051
exempted
##mento
##34
aged
tiered
##kyo
camera
racetr
frames
097
growers
cultural
##walk
##atisf
renal
reagents
##oplas
vinyl
eis
tandem
roofing
disruptive
##ulates
samuel
tarp
061
##illar
rech
##gene
exhausted
clara
kal
kay
unac
wellness
predomin
compass
amr
chrysler
conferences
insureds
brows
combat
cypress
##tera
exert
topical
csa
rex
##agara
##epco
micron
juice
incon
underfunded
##father
##bow
contiguous
static
juan
catch
stanford
stoppage
starts
stric
##weigh
atc
gse
terra
bargain
##ahoo
prominent
mcl
brunswick
stricter
sbc
roads
modifies
bn
concludes
bottling
1968
powerful
##bin
isos
unaccept
presidents
motorcy
resultant
unenc
guideline
##strong
##lake
cameras
ble
carp
barney
radios
consp
099
monong
frequencies
concentrates
aero
feel
choices
##fundable
##obe
##ometers
losing
dedicate
unsolic
richards
scrip
unsolicited
##phis
##monary
nonrefundable
arca
empower
rogers
carryback
cips
##ibr
##elle
louisville
reynolds
tokyo
seating
schwab
durable
reactor
artists
appearance
chance
lawfully
wu
designers
truth
safeguards
circle
fen
explanation
prorated
philips
##ologist
reject
correlated
##ei
##igm
nucle
pegasus
alban
intermodal
spinal
niagara
taxpayer
eaton
ski
barbara
dick
insiders
##ians
##imilar
##imil
##stemp
timet
alcoa
postemp
soybean
capitalizing
acs
hanover
postemployment
bhc
tran
accommodations
wol
assimil
tolling
nickel
##anet
namely
##awa
terminology
legislature
predictions
3rd
docket
regim
inters
patch
vacuum
tin
progression
##wire
stainless
##65
winton
cables
parad
##hua
##estock
encourages
butler
##isers
disgor
mapping
opio
delisting
bart
globe
##weight
lke
apportion
launches
vector
nielsen
nearby
sid
extract
externally
twc
regener
ugi
##boards
rebuild
##87
yahoo
spine
unmet
armstrong
exceptional
classic
productions
curtailed
##ahela
airgas
ker
monongahela
poultry
precluded
affinity
mci
astraz
delisted
brent
unilateral
loral
aros
astrazeneca
todd
subc
dropped
sas
dramatic
cti
synchron
##ersion
memphis
dele
nonreg
ide
retrans
mos
resub
foam
grandfather
recordkeeping
mons
##tronic
mediation
pim
sic
bms
mathema
081
roger
expensing
partnering
##31
deere
formulated
homogeneous
upcoming
repatriate
##iro
hereafter
pge
monoc
metabol
packet
##35
cultiv
##books
##vell
##scale
cinema
harbors
##omal
diameter
##vd
alloys
coding
criterion
constitution
##usions
##okine
##store
deals
anywhere
repossession
cautioned
tulsa
moment
unnecessary
applicants
dismant
naturally
##itis
1956
investigative
broadcasters
purity
amaz
antigen
fringe
theatrical
unencumbered
##ecom
assemble
##iston
validate
voc
fabricated
##asts
##utili
deceptive
deteriorating
escalations
##28
##ustar
viewing
consignment
##unte
grouped
##iton
apache
jefferies
simply
coronary
disagreement
adc
physically
steak
##ologis
uncompleted
rounding
collects
pef
hepatitis
drink
igcc
barges
##aph
tos
furnishings
##otr
##areit
umbrella
##oto
alf
dimensional
workover
sha
mcdonald
monsanto
bioc
strictly
volunte
arranging
lar
movies
homeland
pumping
converts
coordinating
restit
irrig
##apse
threatening
hospice
sacra
sacramento
4th
##yard
suntrust
anyone
tb
warmer
toled
korean
##ava
incomplete
competencies
harrison
proposition
awaiting
peg
induced
##therap
optimizing
vm
disturb
hil
rented
timeframe
farming
terminable
##produc
##lick
guang
pnmr
##orily
bvi
joe
murray
prologis
##etta
seminars
prescribing
restitution
differed
##ante
translate
appraisers
kronos
compromised
academy
economical
misuse
directives
allergan
kl
##oo
revoked
##oli
poker
specification
##from
##berry
bluegreen
interact
##arge
salem
constitu
afc
possesses
tightening
peers
##etition
fan
nts
entries
chargebacks
colleges
hl
atms
katr
downtime
underwrite
dayton
peps
assigning
pscw
##cies
saturday
len
operative
ems
toledo
##rom
digits
nonstat
supermarket
congr
##linary
cgm
##sim
##axis
sessions
attachment
advertisement
2nd
carryover
seaf
cedar
bankruptcies
terrestr
cartr
reimburses
hunter
penelec
nonstatutory
conceived
scs
expedited
##200
##64
gte
hemat
easements
##earns
tip
rr
advertiser
##approved
trace
katrina
orthopedic
##gone
ryder
disinter
tenn
2033
serial
evers
drinking
probe
collaborate
psa
##kes
kidney
puct
fold
##educ
arn
decades
crediting
alll
syndrome
2031
crescent
quotas
##rx
completeness
breakage
##assemb
gnma
bought
inhal
##mentary
turner
bk
decides
unacceptable
##places
##orb
msr
repayable
##erco
encumbrances
refunding
simplifies
ka
dte
rug
irresp
circumstance
mattel
##lonal
##gram
vornado
compensating
ctc
hunt
algorithms
##lix
brooks
panhand
subdivisions
shifted
deadlines
subpoena
northstar
##endant
frederick
chamber
##axial
spart
sbic
cheniere
conectiv
plugging
hull
repatriated
glax
##break
materiality
outbound
##ders
buffalo
impr
goodman
therefrom
##rep
perh
deploying
recoverables
geopol
##athan
perhaps
ze
terrestrial
inbound
alum
schl
panhandle
patronage
##uctures
regime
estates
twin
beam
validated
ltv
moves
ticker
accumulate
mirror
exiting
##gement
msc
cyl
geography
obligate
congressional
##dock
multic
kings
catastroph
leaf
traders
referring
airplanes
geopolitical
outlines
seats
parents
implicit
nexstar
xv
monoclonal
conveyed
##lede
devaluation
gir
aj
harvey
enbridge
catastrophes
rack
audiences
disbursement
phosphate
laclede
##29
broadway
coopers
tradenames
irrespective
pand
ment
##edding
bip
##apsed
memorial
advancing
jin
##llable
disgorgement
friedman
noncancellable
macau
tribal
analogous
grill
nondeduc
breakdowns
burdensome
reinfor
##via
##park
birming
printer
smo
##ui
##ighter
##erving
torch
moist
##first
gra
laps
cler
nurses
birmingham
cdos
payer
sirius
##qs
blm
customarily
concerned
governor
spray
##yps
photo
aventis
sustainability
##enton
comming
harry
injectable
stagg
interrupt
epo
cz
##ritis
lem
provinces
##alc
spirit
indoor
##self
keith
##ayette
sums
dispar
informational
demeter
mind
controllers
handheld
wholesaler
averaging
seizure
##activeness
nih
conges
attractiveness
barclays
##ih
curric
##roid
px
##mans
##iju
pierce
editorial
cooperate
epis
overtime
##tu
proposing
biosciences
liquor
understandings
banker
adm
##opes
rationalization
addendum
born
neal
welders
bv
cts
nareit
terry
fleets
labeled
renegotiation
removes
supervised
arena
lig
milli
irish
##eta
medal
##ijuana
lauder
booked
##terson
##etry
toxicity
retrofit
jerry
fundamentals
abatement
##05
indeterm
##urt
encouraging
##igna
tpg
tent
##aling
writes
bankatlantic
alignment
presumed
hat
princeton
coinsurance
honeywell
##ensen
interconnected
tiv
nonbank
sodium
vapor
biofuel
blanket
cancellable
keybank
feedstocks
proforma
handset
dog
coupons
cet
##uls
ranked
hhs
##jiang
witness
cameron
continent
pars
bain
accelerating
campuses
ligg
dismissing
implements
##oh
svb
##vax
institutes
vect
graft
reservations
##nan
locating
merchandisers
dependents
concert
transd
midd
ensures
liggett
##atements
##icare
##mentation
norway
mitsu
##nut
rough
##tracted
revises
merton
##ordan
precautions
gau
##ountain
consented
distillers
cantor
particulate
##electronics
perfect
##raft
panc
sempra
relinquish
rhe
##acing
flights
phen
kv
stearns
corrug
scalability
won
##stitution
nondeductible
irb
lyond
zap
lyondell
pvr
fon
polaris
##orpe
extracted
dx
jen
genomics
pulmonary
bowling
##eur
##enderson
contracthold
geologic
kept
blending
prescriptions
mgm
baa
##chester
scanning
ped
morbid
enzyme
mailed
chose
instrumental
biosimilar
importation
neph
pieces
trinity
##aun
resold
fsa
budgetary
revalued
sherman
shareowners
##phere
wing
##etitive
wir
restate
destinations
rollo
##ellus
intraven
discloses
imag
##ania
walk
##zers
##wb
consol
morning
upscale
##ommerce
liu
jans
pulse
##ourg
paine
##lia
underperforming
pepsico
tds
ncr
closest
lb
transferor
invalidity
interrupted
gamma
##ourne
##planned
henderson
rn
##bling
vod
paging
starwood
supervise
wendy
##iva
inflammation
kbs
completes
kraft
lattice
orally
prosper
receivership
needle
outlays
idt
announcing
transitioning
2032
conferencing
dys
genetics
tolerated
##vale
heard
cascade
nonregulated
itt
contemplate
##mitt
altered
##don
minimizes
exterior
merging
ranks
puco
reside
spectra
##39
technically
ventil
##hall
cart
leuk
irrigation
rfs
mcfe
##overed
##omial
demonstrates
predominately
yar
directs
discusses
##oly
##ums
erc
prevents
modems
##phones
##hca
monroe
refinanc
bullion
codified
senate
tiers
scotland
finds
tonn
boliv
unplanned
din
nonp
##akers
proposes
montreal
columns
austria
withstand
unrem
nsr
fpsc
##flex
wrongdo
mog
##iciency
##ouver
alb
newsprint
vancouver
nfa
##atur
acquiree
guides
kinds
kb
retroc
wellhead
recombin
##ethorpe
##yx
elan
##oned
gat
dispersed
##losure
refinancings
kodak
disallowed
##gg
distinctive
nathan
##ogy
vint
recombinant
collaborator
rx
belong
##athy
csp
##ook
slowing
aided
livestock
enjo
##ulsion
automate
compatibility
leather
emit
bns
smoking
tek
strongly
greene
bcfe
peaking
yu
rigid
interpretive
actuary
biogen
venezuelan
cigna
ppaca
sigma
prevalent
kios
ridgewood
elective
unionized
refractory
avoided
crush
complexities
mcle
usf
##inf
csx
hus
builder
establishments
paramount
renegotiate
mlp
cis
trop
hors
nisource
encore
##ito
albany
nothing
##preced
##moil
hind
unpreced
unprecedented
promotes
finger
##nick
##fm
turmoil
signaling
adel
marking
chester
##ados
imbalance
irreg
unsuitable
milling
atmosphere
unass
bags
storing
irregular
horiz
##vasive
registrar
##rop
aet
##acorp
tce
ogl
accre
prepares
entails
bacteria
truckload
pug
##36
aster
nim
lamp
remediated
pcb
yard
converg
corridor
imprec
gathered
wrongdoing
lon
piece
opp
carpet
counterparts
riverside
accessory
viacom
staggered
amazon
accepts
vars
obligors
enjoining
measurable
citizen
refurbishment
cmp
yang
clarifying
transitioned
pne
biograph
oglethorpe
reactions
testim
##ria
peat
pond
evergreen
3a
##soft
megawatt
2035
##47
denmark
vulcan
athle
sed
tio
proliferation
viewers
garage
luxemb
elder
kirk
subserv
gswc
gram
paperboard
##practice
##arth
ams
palo
dues
anes
xiii
prudently
sustaining
flooring
scoti
chef
spirits
centrally
accretable
finalize
wan
glenn
teller
lateral
timeliness
radiology
orbital
unusually
endang
superseded
clearinghouse
ultras
malpractice
mou
##loading
refrigerated
corpus
##mat
consumable
takeda
hca
demol
integrates
holland
swim
magic
slowly
sex
trss
supervisor
agreeing
drew
vang
occupation
qwest
##69
unaware
deliber
federated
lean
legend
nominate
desires
##oods
bottles
##iance
strips
laf
gses
##stan
budgeting
##paired
unremitted
transacted
tactical
##ugene
calgen
dwell
touris
deconsolidated
fhlbny
nys
##tinib
talented
##entive
##clusive
complicated
cohort
differentiation
dermat
launching
##38
forego
hein
commingled
studied
risky
##68
tcf
swepco
cac
tourism
jordan
outbreak
chand
infinity
##utilized
eversource
influenza
molded
homer
stationary
escalating
axis
doral
cellul
berke
educate
##lium
doctors
territorial
rounded
smallcap
puget
hcc
hang
citic
hond
subassemb
landing
##drew
##beacon
reacquired
##pco
pawn
nur
stuart
##etic
withdrew
precisely
barter
disinterested
troy
onebeacon
##iral
specially
gro
luxembourg
basins
##cheduled
arlp
dh
heads
puhca
##orf
##alon
filer
cup
carroll
investigated
cmo
pyr
adobe
ub
sag
inex
mah
worldcom
sharply
bacs
shire
dsp
##master
rib
mcne
lawn
##aro
ferrous
opposite
##iatric
##itus
##atrix
influences
vivo
medtronic
outflow
##urrency
depreciate
fibr
dissolve
osha
##asco
brick
disorder
appropriations
opportunistic
rsa
consummating
wamu
centennial
disbursed
scana
parish
ti
lens
barnett
##estar
##rad
##amer
melan
##acity
transports
fhfa
endangered
mamm
transmissions
willfully
woods
##illa
##aint
sequence
nonoper
inso
hospira
insulation
morbidity
tonnage
dictate
intensity
##strom
francis
keys
wti
berkeley
bald
retransmission
##lification
##nedy
oig
appraiser
stimulation
epid
jonathan
seasoned
lanc
##hard
churn
ims
cco
appalachian
tropic
##iday
succession
conservator
correspondingly
parach
inventor
ideas
kennedy
eugene
##prop
cme
greens
##upply
jam
sdg
landlords
hormone
responsiveness
disallowance
nee
rite
reinstated
recur
dana
fung
cpl
bodily
manipulation
corrosion
sunday
pfic
refuel
##theon
transco
cep
plum
jiang
tpe
ecommerce
seid
disproportionately
minimis
winds
pneum
31st
##001
##word
mann
clarified
smelter
rto
lenses
sportswear
unbundled
passu
resumed
opa
cort
neon
reinstatement
theories
bros
loads
qtl
mps
gw
unimpaired
##due
smooth
disciplinary
consume
naming
absorbed
cdma
lv
pharmacokine
vl
slowed
##ervices
nonpublic
binomial
##dp
scotia
demanded
charl
##ubb
##luent
reex
advent
##hanna
ultrasound
schwartz
10a
##90
15th
tentative
epic
drinks
coaxial
endo
1967
fluor
lybrand
census
##aria
synthesis
b2
returning
recommends
god
albert
nicor
postal
von
cooperating
icg
##ray
carey
metastatic
describing
##iron
nong
tall
##rooms
insights
##match
##orum
staffs
amerig
plumb
wein
diagnosed
morator
cadence
##mor
##olar
hcv
metering
harold
bil
minimally
nis
marwick
##esson
##arin
##ypsum
cafe
fairness
impression
stakeholders
epc
##teenth
bilateral
recomp
wins
wex
filling
closer
persistency
frost
subscribe
##keye
kmart
czech
compositions
##44
packing
citrus
##core
spo
raytheon
cendant
rebal
occasions
neighboring
##udi
correctional
cair
cere
premature
avista
armed
turbo
marijuana
doors
##entr
##balt
rollover
##ugal
brewing
forgiven
disagree
wheels
wps
updating
banner
undes
mats
investigator
bifurcated
catheters
vanguard
facsim
adhesives
infringes
outer
wgl
expro
practitioners
vel
##32
escrowed
cobra
hyatt
revpar
entrepreneur
allo
##ima
suspending
advancements
##ibration
cele
originator
##lining
isolated
pancre
shir
ordinarily
oaks
attaining
sedi
electrom
iac
##onia
airbus
edgar
##ali
dth
kan
steering
##ovol
oy
##thes
buses
footh
##etech
mf
quorum
##ean
insures
##ylan
##heed
capita
observations
ami
continuance
isle
styled
meals
peters
knows
seafood
canal
tcc
##mob
booking
misappropri
clinton
destroyed
zo
simmons
janssen
ez
impractic
##95
##gers
lec
characteristic
restored
gun
nonres
##acker
refueling
bellsouth
##wen
##took
bbls
parachute
cher
lifecycle
capsules
faculty
dissatisf
##aced
emphasizing
heights
##ulum
rid
chi
##aya
lockheed
##non
agc
league
##aters
retailing
clust
##ethylene
indexes
##ulus
strati
deteriorated
##astic
##oran
franchisor
aeros
tubes
##usive
ai
creditworthy
undertook
##eted
fishing
portals
vein
zhang
cov
majes
##turn
momentum
ethylene
faulty
stemming
steve
nonoperating
vitamin
susque
bron
subscribed
tropicana
compel
nicholas
oep
recreation
opioid
ntl
omission
drain
##estinal
tie
##rol
durations
##ettled
advertise
##comm
ophthalmic
##ellas
cir
finances
endosc
arter
ck
discouraging
##orporation
prosecuting
precip
marketplaces
glob
zur
##through
commissioners
unsold
shre
davidson
redep
biomark
kilowatt
hence
ws
purification
##aleigh
##101
qsb
graphite
gypsum
susquehanna
corrugated
harmless
pps
financials
squibb
insofar
suffering
reassessment
##arco
aar
tucson
##ews
degrad
acet
raleigh
clinicians
cic
##recy
secrecy
##enet
zhong
trillion
finalization
burns
bnsf
ana
danger
fastest
preemptive
##ayer
intravenous
##nas
remediating
diod
malign
##acia
weap
bis
kc
providence
##ometry
stopped
ghgs
unsettled
factories
legislatures
##oe
impracticable
languages
critic
newmont
retiring
gent
mounted
npi
imbalances
colors
stent
athletic
unapproved
weightings
randall
congestion
chooses
pk
reacting
org
thing
ran
nerve
argument
ashford
lamar
originators
ncb
##aq
##una
divisional
detach
nec
dsm
arnold
disreg
prestig
##dep
encod
##occ
enzy
specialize
quantified
condemn
timeshare
facsimile
##ishi
grandfathered
flooding
oversupply
weights
avoiding
quote
bgc
hers
behringer
##adia
deputy
sjg
projecting
sixteen
configured
##atech
lime
mercer
geology
ambulatory
2034
owes
fres
plumbing
presumption
nau
fragrance
builds
muse
centered
repriced
ips
isa
subassemblies
multiplex
##opa
strives
embr
undet
##ello
sue
venue
corps
efh
amplifiers
contributor
mast
markdown
distress
##88
glb
##77
oli
explosions
cluster
cip
deposition
antic
bob
experimental
devry
mcgr
cca
##tude
psco
prosecute
valor
##baum
classroom
celgene
tastes
##llc
signage
##hf
suggests
magma
disqual
shoes
celebr
purportedly
waterhouse
curriculum
##vil
quartz
transferees
palladium
regen
ilecs
bird
piggy
fnb
alz
nonpayment
hut
spark
casing
##iverse
endorsement
connects
flagship
bailey
programmers
lapses
greenville
pathways
pecun
mmboe
marcellus
moratorium
dong
##year
judged
fullest
redundancy
dump
bass
##tiles
soda
qvc
phr
cheese
pw
unst
pecuniary
##azz
##chap
uninter
solv
##stex
##anxi
song
##inding
resigns
influencing
hampton
##eek
domicile
brewery
telephones
indeterminate
inspector
##igeration
imc
sof
hispan
triggers
allevi
mcv
gifts
reclaim
refrigeration
##redit
exhaust
aux
norman
##anufact
joy
protects
biopharma
anything
stroke
barn
repealed
richardson
appealing
fmc
tracked
##ocs
interview
vine
##owski
injured
beaver
advisable
##acement
teaching
arisen
bould
templ
wpd
witter
departures
reluct
##ycin
shutdowns
shallow
correspondence
osteo
tradename
pso
##uctive
4a
practicing
##terol
idacorp
colony
##unct
eip
kop
fic
mattress
htm
bancorporation
taco
##gard
synergy
excel
evidencing
pole
shrinkage
seidman
publishes
##89
regarded
nationsbank
bennett
##col
mohawk
registering
sbs
marcus
xin
programm
speculation
horizons
##igen
##inders
barnes
penins
##forward
mental
ott
##hiba
##erted
decont
discriminatory
patterson
dies
nnn
inns
spor
donor
alam
tio2
startup
reincorporated
##rog
whist
##55
unto
nascar
##matic
pledges
9001
wynd
jean
gay
compressors
gsu
membrane
homebu
plough
apco
disregard
##cin
vist
westing
xen
ledg
rems
leo
violating
moines
deerfield
obst
toshiba
obes
undesir
gecc
advising
sense
tolerability
hungary
schlum
##jun
surfaces
inspected
undesirable
##airie
unitary
artificial
adr
coo
mcneil
westinghouse
vc
burger
##add
ortho
kaplan
inflow
##jin
streamlining
snack
obesity
beacon
adam
infrastructures
pcc
monetization
shreve
pride
eds
coincide
broken
##arma
##trans
expedients
##etter
elliott
cruc
reissued
spartan
desert
##agher
customize
surviv
ual
breakthrough
encumbered
boiler
eog
say
pla
airborne
tetr
knowledgeable
atk
nano
infant
locks
rud
lpg
unt
##folk
varian
acl
##imer
##acare
provisioning
volunteers
##annel
percenti
ideal
ud
saudi
inaccur
subchap
accessibility
berk
gaf
buckeye
subchapter
brake
shreveport
kaz
harvesting
##leb
autoimmune
conclusive
parity
predicting
converters
nonex
##owitz
hmos
reop
seizures
zy
##rews
sending
sabine
schlumberger
##iso
sufficiency
uninterru
dover
outweigh
communicating
peptide
learn
appleton
bps
mileage
aetna
norfolk
##world
interoperability
hark
##oty
relieved
mogul
##02
colder
bos
unw
equistar
##uff
##zing
waxman
undetected
intake
##user
cch
ign
meyer
steph
dart
ine
ids
##boy
pwc
repurchasing
fitzg
diem
taste
##axel
apps
runoff
vending
##rt
nustar
collateralization
scrub
unreasonable
conflicting
localized
passing
dee
arlington
jim
fibre
dea
clayton
verde
##eon
claimant
obtainable
bic
##iller
physics
warnings
undisclosed
polyethylene
horsepower
##ango
##bone
##agement
insurable
egg
perceive
harness
tropical
ik
alzheimer
##space
entrance
haven
dram
habits
springfield
venturer
receptors
cranes
dsi
objects
designee
videos
selects
##hegan
boli
usap
##enda
correctly
contraction
unanimous
##elsat
ntic
##edged
dealings
##iliary
toxicology
casting
##activ
cmc
23a
emm
breat
##26
unix
##zen
corners
implementations
leaves
chest
##reit
explain
portr
silic
guy
ya
assertions
##city
alpine
peninsula
ia
gsm
distinguished
therefor
survive
boom
subcontracts
buyback
fractionation
fca
mff
##erner
wab
whitney
exacerbated
evenly
opted
transferability
oxid
afl
##mas
calcium
charleston
cps
dream
mainframe
21st
township
wyndham
ptwh
peripherals
machining
interruptible
devi
triang
acknowledged
finder
##andong
##ometer
captured
##bar
dominated
ppg
thinly
subpoenas
nichols
##banc
pix
intents
##istan
kids
conserve
citicorp
steadily
stevens
remanufact
treasuries
boulder
steril
victoria
staffed
designates
pte
dust
discipline
doub
malone
hallmark
worst
awarding
weaken
15g
worthless
##anson
protracted
stern
letterhead
veterans
30th
##erox
bacterial
necessitate
hcp
bingo
##stown
nonaffiliated
prost
judgement
furnace
ati
forfeitable
posts
segregate
abbvie
##anton
dale
jenn
kimber
recovers
preserving
ares
telesat
scanners
pend
##66
regimen
neuros
acacia
peterson
dred
##clp
laurus
unexpired
qsr
overdrafts
deeds
##estry
esh
replicate
depict
##iser
radar
2036
ambient
ginn
lone
logs
willow
##oster
jd
##minent
teachers
ratable
##uson
rocks
##ogether
trustmark
remic
gol
undergone
yuan
altogether
rna
mohegan
accretive
organize
##xin
##iant
prohibitive
hurdle
citadel
forbes
##jack
crime
##still
programmable
knee
brooklyn
dunc
drawing
entitling
potash
asr
pror
moderately
bunge
eastman
alert
solicited
blvd
additive
guardian
rif
durability
##late
wd
rainbow
susan
feeder
agil
radius
thickness
friday
##orado
##eds
##elman
legg
obama
subsection
##lab
moisture
##quin
pam
zurich
barton
promise
barring
pga
cobalt
mutuel
cpas
xerox
normalized
boyd
2b
##fig
slowdowns
contested
infer
hicks
workstations
reversing
malfunction
adelphia
grass
##eder
monter
remarket
regain
cen
cyto
deployments
pertains
hf
patentable
relax
bras
emer
releasing
sentence
zim
donnel
##athers
surgeon
deaths
bouti
sut
gor
##tifications
portray
shandong
decentr
decentralized
recalc
anticipating
castings
unstable
bundle
knox
kh
hackers
mip
wars
youth
hines
nondisclosure
queen
kos
regal
executory
conventions
##79
##vernmental
##reditor
relieve
optimum
textron
solvent
dbt
cerv
minimums
retrieval
artery
##ahl
pag
rica
manor
leap
browser
intercreditor
irrevocably
cet1
pfs
unscheduled
lak
limestone
1980s
coil
##inta
nonpro
subsidized
plates
phel
effectuate
pud
##stor
distract
endeavors
trc
intelsat
##enthal
demolition
vicinity
tractor
ffel
carson
plm
##ulu
avalon
4b
choosing
##fth
swedish
arthritis
victor
linux
antagon
evident
detailing
infrequently
conspiracy
tivo
##aux
##itization
chatt
##hine
##castle
10b5
nci
tea
viet
nurse
turf
baldwin
mylan
clarke
delegate
##etrics
rubin
fdc
offline
argentine
judgmental
encompassing
##limit
iraq
kohl
voyage
##illard
redeeming
toyota
commits
##rus
clia
shoe
##po
##eure
stam
cng
condemnation
connectors
prevalence
##oining
##yo
residuals
##omatic
belle
recessionary
vf
chug
##yler
##46
jc
thom
##esty
hubs
##ando
ias
##xx
sequencing
commissioned
unproven
majeure
chloride
ave
anat
condominiums
fork
herb
ron
mop
subsea
staples
psychiatric
specifying
wci
feld
inergy
manif
onsite
sumit
##86
shortened
attendant
##etrix
wheeler
rit
understood
substanti
biographical
codm
municipality
pucn
##isys
##tran
2037
violates
molds
timelines
mws
conservators
##rable
lpsc
tornado
##yards
##contin
morr
denotes
ginnie
immuno
contractholder
##phin
eqm
lauderdale
reassessed
##42
##esse
##grass
brigh
diet
sie
belt
acuity
uncollected
bpu
##ntc
defaulting
cta
chiron
btu
computes
##pert
microb
totalling
bgs
##umph
presidential
mkt
architectures
##tilities
ledger
corresponds
refinement
##esignated
##fax
boots
ratepay
fracture
played
asa
renews
hostilities
vietnam
relay
spar
cornell
mffo
mediacom
percentile
rapids
herbert
bryan
fcm
mitsub
##astar
subjecting
helic
counted
infrared
omni
##73
novell
pmc
##flo
##hg
mitsubishi
disappro
panama
chs
sumitomo
3000
contributors
finlay
willis
spire
forwarding
midwestern
aber
pleasure
##street
mpc
entitlements
##ele
directional
credential
translating
featured
##imi
sta
convergence
affinion
outperform
##manship
designees
##porter
melanoma
spun
##vention
police
##cell
concluding
lans
antibiotics
neighborhoods
microsystems
duncan
diabetic
birth
hires
abbrev
editing
vant
caes
expropriation
cited
exporting
pathology
beverly
ecu
seventeen
##hyth
##olesterol
enstar
whar
male
burke
##olia
##emes
purpa
nhp
sunshine
##gian
reorganizations
m2
objection
disciplines
isis
wallace
zen
rolls
portugal
als
##aver
finova
sophistication
cpc
##cos
collision
avoidance
##iology
leas
##mg
##eps
##82
monetize
trun
flowers
volumetric
##opoly
assessable
ecos
neill
lyon
taxpayers
nonacc
lastly
##exchange
##otide
vincent
strongest
complimentary
astellas
wiring
capitol
atomic
riv
sublimit
diversifying
boise
bang
asi
claw
mvp
metabolic
teamst
relevance
instruct
centric
rouge
amerigas
##76
planet
##ucker
##ogens
preventive
cns
substrates
axa
rl
nasal
linking
tsx
solu
transparent
sms
theaters
duc
pct
microelectronics
##fil
facilitated
pbm
ehr
hispanic
##70
inverse
arguments
encumber
kerr
vertex
disqualified
counterfe
##ifi
dbntc
onset
fairfield
agilent
collagen
##ebook
##max
kilometers
compounding
##ophil
geos
409a
factored
bion
ptc
salomon
ty
depression
biofuels
##bles
##rook
##hoe
##dig
##odon
sweep
chandler
healing
facebook
safer
tradable
burning
christian
avon
sheng
turns
lav
##iggs
##ugh
kath
decorative
sys
##zone
octane
nongo
santander
##engine
##quer
##opter
bioscience
prairie
##yte
##roy
monarch
##oard
benj
gastroint
elite
intercept
ndas
metabolism
aml
crack
loaded
subtr
brass
silica
encaps
gastrointestinal
secures
predicated
##webber
##prc
modeled
##iy
terti
cilcorp
##achi
landmark
incorrectly
highland
painewebber
intrusion
contacting
rai
rsas
##oglo
##aman
dissemination
bny
clarity
remand
degradation
shear
chefs
phelps
pork
chat
malicious
ukr
fob
duff
statewide
sensing
energen
restatements
yale
tus
bma
treats
drydock
esi
spok
migrate
solutia
volc
##ician
uncured
edc
directorships
workout
deterr
icp
paragon
logis
gallagher
##uell
reproduc
craw
##borough
foothill
quaker
##ermal
##ader
stocking
puts
##hd
neck
warburg
ercot
engle
flavors
unisource
abi
missile
halt
1900
excav
swingline
respecting
medallion
deck
interpreting
thought
##okee
transitions
##ros
winn
##hart
##feld
knew
habit
ocwen
interferon
1965
pcbs
##chem
privati
enzymes
benjamin
##thus
##urface
dbtca
maiden
##tro
eldorado
##tivities
njbp
##asi
rockwell
evolved
someone
tsa
felcor
##union
##therapy
sons
transmitter
arranger
promulgate
stret
ole
##gal
decontamination
composites
benz
beech
bpd
cruises
stol
expectancy
questionable
anesthes
totalled
fb
progresses
seag
majestic
fountain
nico
abn
avant
curtis
refiners
uniden
gcp
trauma
bakken
mpuc
mcdon
expedite
unanimously
objections
144a
xia
##51
pointe
cherokee
cci
correlate
mainland
fide
csi
crews
collateralizing
mailings
worsen
diverted
##gle
##ocr
apbo
misrepresentations
##encor
curtailments
appointing
##page
##olph
albu
segmented
laid
lifes
##ocard
##pting
genome
rotation
fixing
conservatorship
persistent
alleviate
structurally
antibiotic
tankers
mckesson
rick
ferg
antigens
nongovernmental
realities
console
##ffe
discussing
apc
##grounds
valorem
##enberg
##ectal
uncontr
cei
tong
##iates
reagent
peach
ahp
njbpu
cheng
##chi
fte
##erer
##atus
maa
drought
cooking
lapsed
preliminarily
locomo
eqt
newark
##ellan
guil
cdi
niger
procured
vias
##aser
markers
greenwich
homest
firearm
uninterrupted
catering
tenneco
logan
importing
vr
inner
##tone
tertiary
carg
adjoining
interventional
racetrack
mdc
gradual
elderly
bearings
irving
schne
brien
cag
reef
sandy
cdc
ride
spes
litigations
##ovolta
counse
pasta
markup
asth
harmon
wyeth
pilots
nonresidential
visible
dyco
behaviors
uphol
writedowns
mega
sensitivities
aesthetic
blast
gambling
ccs
photovolta
##eer
##ensible
coleman
peo
seeds
wines
immig
depr
pak
##fast
fibrosis
debar
talk
mms
schema
##ault
acceptances
hath
mere
moly
nalco
shen
##advis
genetically
moss
acous
bottle
##waters
jos
##81
upholst
finland
aon
drove
nava
aerial
erie
depths
magellan
proves
abbreviated
prene
hansen
holdback
lengths
subsurface
transmitting
medically
mismatch
compiled
##83
##cious
##inoff
##holding
ally
protest
immunotherapy
1960
tianjin
carpenter
arriving
compaq
##iegel
testimony
emerson
anomal
reexamination
##63
generations
1440
cinemark
##ecare
mice
subjectivity
microprocessor
mitigates
deline
supervising
amerco
bah
payoffs
securitize
superstores
trench
alumina
bfc
signatory
voba
gardner
ceasing
slots
journals
notifications
##endo
introduces
routers
anytime
christmas
champion
vegetable
java
arbitrator
##arie
reactors
draf
classifying
##guard
usepa
##mic
##ube
##alia
contacted
adp
sino
buys
mechanics
hathaway
##ji
kimberly
nok
overlapping
sick
ineligible
asus
reaff
quanta
conviction
seventy
assignor
wishes
piracy
pod
##etti
alteration
preneed
##ocean
carcin
methanol
##ogenesis
wales
dtv
##esco
tapes
inclement
scanner
finalizing
##marketable
sara
mixture
adjudication
##child
iw
helicopter
tba
wpc
naa
##endale
guided
katz
love
counseling
potent
tia
deviations
brit
quadr
une
syring
intervene
##aughlin
odys
dispersion
grav
nerv
##idel
rollforward
spacing
fueling
a1
dayr
##channel
psb
meadow
##jan
##acor
serum
denom
inches
alon
osc
backbone
boss
##olutions
mother
exposing
##hea
reconfig
polar
queens
strengthens
dodge
kau
usb
##avir
dcf
conduits
supervisors
bud
##function
broadened
imprecise
sny
##osmith
seneca
emeritus
incoming
furnaces
bru
costing
##bourne
insignia
##continental
##utaneous
conscious
nbp
bpc
reus
1119
lcd
liquefaction
##41
commons
greece
npv
apex
##bach
standardization
retentions
attractions
ui
fragrances
##uz
glaxosmith
uniquely
##terra
##lerosis
gilbert
tribune
undesignated
alltel
scoring
briefing
duplication
hopkins
oaktree
1966
hoffman
##fac
##tix
##ogr
replenishment
paa
safely
mec
drawdown
wpsc
biometric
##cia
glaxosmithkline
##izers
cinemas
watts
rav
##building
mistake
bior
odyssey
energies
elm
cyn
23b
gan
cores
observe
##graduate
aip
mouth
##emics
towing
recurrence
##azer
bare
ald
##uco
xr
affordability
mariner
synerg
##tifiable
##ocurrency
scc
northrop
realign
vintage
veloc
torchmark
##leblow
leverages
whistleblow
##acies
subset
dunn
agon
##lings
motorcycle
pvc
putnam
crypt
genomic
ovarian
ppo
citgo
paired
portrayal
1990s
##mobil
enl
iq
shoppers
accountable
##factorily
timeline
dentists
yes
levied
ji
pbgc
gci
lancaster
##57
satisfactorily
homebuilders
##voting
amongst
inver
answered
pearl
vernon
##ours
gamble
##aba
asthma
sunset
correcting
##venth
cove
surrenders
ppm
unutilized
characterize
##epoint
father
brookfield
trader
concentrating
nonvoting
clerical
kiosks
hutch
##alta
lenn
syd
spinoff
smartphones
layout
rotary
denies
rescinded
posed
eleventh
nonprofit
wherever
cherry
advers
infected
stamford
worksh
##ocl
edi
hemp
cervical
sandridge
ilec
cwa
##405
jump
##isch
boilers
promoter
##sense
gloss
implantable
hygi
##fx
##igo
conway
##iii
farmland
##ulators
joel
refrain
duques
ticketing
lts
snyder
exxonmobil
disclaimer
mask
redeterm
##amins
##avo
doctr
capping
writ
##pot
##train
impound
deferrable
forfeit
##cles
saleable
##ahy
pllc
##payments
winston
gauge
spp
tell
enthus
radian
sunny
fuller
navajo
nervous
##ials
obstr
tailor
devotes
injections
ocs
##ionics
##nstein
thrifts
wavel
unasserted
eve
appeti
atel
besp
yielded
tribes
tile
gilti
bull
##products
jm
attracted
procuring
wis
caterp
benchmar
smar
poses
substituted
triangle
sewer
##agan
tunnel
##rose
highways
nonexclusive
accommodation
tca
##avision
vance
veb
##olo
cron
pancreatic
aligns
proactively
streamlined
rheum
subservic
wv
vmware
bidder
duquesne
##ois
rps
simulations
ratepayers
pathogens
##yme
giant
##94
homebuyers
regenerative
isps
altr
##78
verif
prototypes
##atec
enrollments
rbs
chairperson
cob
caterpillar
solve
pursues
##bed
##icor
invoicing
indemnit
harvested
comd
newcastle
nest
reconstruction
trains
lifting
worsening
prestige
##aus
exhibited
horn
bpo
gatx
parenthes
gsa
mesh
dalton
logistical
##media
neurological
patric
cong
chugach
theore
resched
##ifax
benefiting
strains
sad
kang
himself
workmanship
wl
decoup
scottsdale
pto
nhl
deflation
criticized
races
##enburg
dark
aligning
hundredth
recharge
sca
rip
carn
##ser
amm
reprod
mckin
enrolling
##tx
spous
naaqs
yards
exported
dough
##anted
##eyer
boundaries
##akh
##stop
resubstitution
dating
forestry
acids
importantly
logos
cholesterol
brine
contesting
hw
##tax
modal
boost
chambers
lessen
revealed
##fn
benchmarking
##uters
arbor
veins
cytok
cape
ferguson
eighty
##issan
##woods
ventilation
convicted
##adic
choc
famous
gdp
amid
oppen
adopts
bnp
executes
polish
bona
retin
bes
microprocessors
hostile
##abit
marrow
mam
tut
##61
enum
armor
ye
laurel
##etting
pervasive
observation
nem
ucdp
impressions
uncontroll
contemporaneously
##otec
woodlands
pcr
transplantation
ferry
sib
circumvention
iurc
invesco
modestly
jazz
alto
manit
nonclinical
handles
think
anter
coli
tg
stockp
##odynam
lynn
##48
##pin
westwood
weapons
##efield
caterair
astor
nut
alag
securityholders
##eg
wb
collectors
1935
eso
##amax
windstream
gree
superint
rpm
##enne
##amation
##tick
particles
motorsports
##oa
reallocation
schneider
starb
biops
empowered
##bee
##asia
gour
seabrook
##oton
alagasco
revert
reply
lia
hypert
rut
fdca
courier
synov
ecr
vegetables
expedia
##upo
##ureth
pestic
goodyear
abst
##qua
tj
##ventional
lightweight
workstation
vand
hec
potency
eei
weatherford
qsp
artist
viad
sox
##mates
weiss
distraction
##bls
pregn
wilshire
venturers
bloomberg
senti
tactics
pads
berman
caesars
ies
lign
hick
probabilities
substrate
ascribed
promp
##oplasty
rial
##erville
summaries
##feas
##boats
sulph
cryo
mti
##fire
coval
riders
##otox
##mt
ablation
##sky
##06
kern
##you
##erous
wake
preventative
##tides
roughly
bhe
dwelling
inadvertently
##elo
transce
llcs
explicitly
##43
unin
perkins
guaranties
lafayette
breath
sally
leaks
ascent
drag
bog
##ya
ceoc
elapsed
leasable
##alg
prediction
practiced
versati
theod
saul
cultures
echo
dipl
alj
##sys
regionally
syl
##path
wavelength
gateways
spv
greenfield
arabia
tyler
unsub
xiv
reilly
stretch
everyday
imprison
negligible
thomson
artis
ipa
##otic
erics
kk
##arex
bates
sealing
##querque
vale
##tp
gbp
closes
##ibor
smsc
regimes
undergraduate
albuquerque
categorization
dai
##oman
bedding
sublet
inadvertent
clec
hess
##omax
goldstein
endurance
hh
us12
pens
mdl
suppress
redeploy
linda
rfid
##bir
vacate
revising
somers
##sten
lambert
rup
rowe
cylinders
euron
ndt
transocean
compressed
eesa
##ahan
remotely
simps
injected
rheumat
amro
fairchild
hod
norwe
turned
apparatus
schemes
liner
##alling
##ucted
reluctant
norwegian
docum
koch
speedway
relocating
attachments
irregularities
fiberglass
##tan
liquefied
sang
instantaneous
##asm
##cott
reposit
reauthor
fcx
##oni
muc
reck
traveling
gourmet
ais
boca
illnesses
swimming
imprisonment
##pal
unilaterally
ston
probably
occasional
deeper
baton
contemporary
salesperson
achievable
macqu
aerosol
##lit
brex
kru
grum
triton
##essing
phh
torr
becker
bioequ
arrays
##rac
newton
illustrated
##nic
extrusion
admit
##acters
fbr
neu
intensified
fern
##oice
expiry
standstill
boardwalk
lakeland
##idy
epi
ucb
characters
manning
lifted
cajun
refused
vulnerabilities
##ysts
psu
##idad
arden
qualcomm
organizing
dispens
unreasonably
gon
kon
cx
rialto
disadvantageous
##bold
theodore
alfa
unsatis
discontinuing
lesions
intu
versa
macquarie
bioequival
vault
usc
##last
etfs
##eties
mds
nabisco
##abine
##tha
unsatisfactory
cbiz
robin
camb
##istically
asher
varieties
##imo
minister
##crest
piping
leslie
robotic
leukemia
tys
grande
oppenheimer
ted
fellow
##cul
##isphere
justified
postpone
encounters
primus
partnered
griffith
borders
daim
playing
sst
##etec
dece
sos
ninete
##offs
chel
##iners
##aws
trees
broadening
##exa
lasting
wesco
piggyback
##stad
antennas
mend
invalidate
hock
dix
##iasis
##ylon
appreciate
harken
formulate
warming
##sat
volcker
opti
guc
fulton
dedication
burr
liquidations
bifurcation
apac
xing
broadcasts
mouse
remington
alerts
bands
lecs
uga
##anche
lincolnway
hcs
fare
insuring
photovoltaic
gyn
lodge
undertakings
aviv
lode
perfected
hitachi
solvents
colorectal
ciena
brandy
collectibles
##iano
##qing
df
snacks
bam
impractical
esa
##izz
##62
certifies
##ml
safeguarded
dani
daimler
meant
augmented
peaks
deviation
phillip
grupo
mtbe
bondholders
##orded
imax
##odesk
auburn
ofac
##track
rnai
uneconom
resets
inhibition
##ilin
##umbo
baham
oxides
starz
##etek
paradise
grumman
lob
immigration
ecc
##banco
bridg
ziff
cran
autodesk
appeared
easement
windsor
brexit
ericsson
##emax
bg
gates
##03
##09
##54
lacks
artes
tesoro
accrediting
rush
robb
cargill
female
seniors
doctrine
blocking
fgl
uneconomical
ling
aag
##bernstein
idled
veris
##enia
alliancebernstein
simpson
compuls
##goods
lati
clock
extensible
a2
alfred
dorado
expresses
gtl
contra
reusable
asking
woodward
unidentified
westar
wals
pledging
incentiv
##esta
esrd
covance
tops
##station
lun
corne
galvan
rugged
callaway
georgetown
##amid
repaying
wesbanco
mainline
hamper
kcsm
disinf
headwaters
##isp
lignite
dba
antisense
polyureth
malfunctions
gasification
gardens
capturing
parkinson
siding
wei
fost
##annon
widening
hometown
detention
kor
visiting
##idges
meadows
avionics
cardholder
##mid
##asse
arra
pronounced
naval
fertilizers
sponsorships
lymphoma
##prise
magnes
##tip
haynes
substations
consultations
risen
documenting
##gins
sage
mpl
##endi
overstated
ulc
1964
pair
##ulse
ses
trusted
hewitt
weston
jane
hob
##itsu
ather
##utter
stephens
abusive
andrews
servicem
wildlife
observability
delek
##fed
##esville
distinction
cardiology
bedford
hcf
juni
##idien
twelfth
hitech
searches
succeeded
necessitated
##ogenous
ecuador
molyb
##utility
##71
##atal
wich
brow
laptop
recast
honda
##ueller
##dam
mro
dialog
bj
particle
dimensions
##location
highligh
mcgl
nk
addressable
##urgery
terex
dissatisfaction
##leys
crc
msd
fixture
sgi
nonutility
##play
rita
##ume
kend
facult
##ishable
announce
formulary
drainage
glad
transformers
disaggregated
disparate
motivated
sydney
##ustive
##ounded
kazakh
##itel
lionbridge
argo
refoc
televisions
molybden
yan
mutations
accordion
intuitive
dublin
##case
bsa
##etz
notable
##echt
dura
pull
asterisk
##burton
zip
calg
webmd
lyons
##fco
enog
highlight
enogex
##acin
unreported
consultancy
cce
##ewear
relinquished
jason
astoria
facultative
legality
flying
##buster
##agnetic
##leen
exhaustive
resides
smi
usair
magna
cabinet
utica
##eryl
epco
pharmacology
pendency
oasis
rancho
supportable
solicitations
##eclick
midway
sabre
ust
graphical
guaranteeing
calvin
landowners
ltc
dme
corelogic
organs
##coast
csapr
tighter
cock
##storm
outr
##proved
equalization
wired
renewables
regimens
osb
##mac
rcc
norton
rox
analges
##tiva
felony
##ulted
downsizing
##berland
##yrene
##onym
conj
deficient
unimproved
pharmacia
##itex
misappropriate
emphasized
recessions
##abe
conve
upr
dn
irp
halli
ffelp
##efront
ncuc
##inski
copying
packs
trin
vitamins
##aughter
##imens
walnut
##graft
sothe
analyzer
appalachia
fasteners
innovator
geologist
cartridge
veba
spoil
sotheby
thru
hect
planting
explosion
nit
##uy
manch
devoting
##lene
halliburton
distinguishing
##making
lie
friends
##74
biochem
overturn
pets
dst
eggs
pesos
objectivity
helico
powell
##fish
psor
vid
actavis
diamonds
##watch
usx
misappropriated
##anks
dragon
cyclicality
blad
embod
##throp
orthodon
suspected
bernstein
dismantlement
##msa
underperformance
logging
patricia
anchored
ssp
unconventional
##center
totally
insert
walls
broch
cun
onerous
harbin
defr
nuis
molybdenum
cpg
specimens
pxre
federation
##atide
turning
##amide
realogy
selections
cabin
pillar
ea
##olin
##soever
dysfunction
regent
tomm
shipyard
##etel
dca
usable
bridges
lowe
nokia
wichita
pollutant
##nie
deregulated
involuntarily
ssb
progen
payday
fhlbs
sandoz
innovate
foundations
translations
veritas
porter
favored
nx
orientation
robotics
midas
##eutics
mud
quin
poles
##placement
nhc
##asonic
reception
goes
billboards
undergoes
pratt
kre
ties
superintendent
##grap
whiting
##fton
celer
thread
trying
duane
comparatively
nuisance
pem
##overable
##run
##tian
precipit
nutrients
eea
withholdings
helpful
microbi
sunnyvale
happen
mueller
firearms
forens
textiles
amph
whistleblower
pir
##ocor
vacations
prince
stolen
mim
sep
inconsist
connector
brasil
##emen
enclosed
reaffirm
landscap
crucial
siting
spouses
shaanxi
lme
##pore
tolerances
beat
isaac
chad
backgrounds
##illips
10th
abo
football
##abody
mopsc
electrodes
##acles
##53
mans
##orse
affix
aci
transist
mccl
commissioning
somerset
##72
urine
dense
belo
##pta
watches
psoriasis
##efined
tenancy
phrases
inadequately
hanson
##leaf
amic
trap
visualization
distinguishes
ukraine
##lich
contests
##pters
width
##ystic
usefulness
##tronix
monterey
vw
herbal
honors
sealed
##xis
polyester
hypertension
uv
##db
superced
cans
conoc
ghz
fans
exchanging
helicopters
registrable
clawback
syndic
peabody
scientist
complements
targa
detachable
tommy
osteopor
morrison
intermediates
wetlands
nrs
robertson
allan
scherer
diminution
yarn
exacerbate
battle
cartridges
sao
barred
carbide
##estration
stere
resili
njdep
duplicative
conocoph
drp
anemia
possessing
ceramics
esc
residue
viking
tanker
ian
conocophillips
##haven
glba
cmi
ebay
##thouse
##ifier
filers
chocol
##psi
noncompetition
unh
glossary
##vue
whatsoever
effluent
pinc
##adi
terrain
constitutional
pandemic
dolphin
acquirers
newslet
dependable
hid
rca
oled
##dyne
prax
vy
terminalling
lawyers
drills
minimized
cumberland
ener
navistar
caller
##atham
webb
blends
##advisor
cvs
rockies
lipid
metrology
cushion
##udes
answers
dek
synthes
covalence
scar
urged
drawings
maur
##enco
refresh
malt
recorders
dsw
gg
soup
metallic
cbd
texaco
enjoyed
mehc
windfall
hoc
144067
##urna
adhesive
affords
lamin
fares
sohu
looks
sinc
worksite
bent
eyewear
sequences
imb
root
gst
##07
noteholder
##ople
tennis
bottled
mma
blockbuster
conseco
5324
interexchange
capco
manchester
spas
##roads
eman
##umulative
stimulus
seas
oeh
substation
piper
##91
airtime
laude
##ectomy
dearb
buffet
carnival
1115
weis
propp
##arant
asic
westfield
##intosh
maps
spg
opec
augusta
##prod
##pring
unl
nigeria
##iba
agri
revocable
apportionment
dixie
northland
alterations
entrepreneurial
jumbo
##ordinated
sabot
dso
oid
sri
heil
dearborn
noncumulative
integrys
##iq
fittings
decrees
microsc
prs
cha
survivor
backing
freit
reinvesting
##acell
garmin
cau
subrog
inducements
##llp
organically
##utt
nutrient
synovus
reinforce
exterran
##boston
olympus
illustrate
##orrow
anesthesia
dome
tro
pigments
##201
##ibas
onex
harsh
reevaluate
apt
interiors
acadia
jak
11th
nmprc
opto
ibc
lubricants
##ovo
ard
socal
##entia
wheeling
dalian
consulted
capitation
williston
##iman
tamper
debarment
compulsory
acme
pri
lid
tear
verso
renovated
unmarketable
etch
notebook
tnp
borg
mayer
kla
specificity
catalytic
##anese
##rob
scaled
##oux
transponder
bahamas
tonnes
lehigh
sandwich
beers
##vanta
nul
obligates
validly
incap
##olite
reorganize
k405
ihear
acknowledges
##97
##pd
geologists
exactly
##84
networked
shapes
grouping
bladder
detriment
fujitsu
analytic
pumped
arbitrage
mcmoran
hds
era
cafes
##ori
##enzie
alcatel
disturbances
seagate
dess
orbc
msg
simplification
##entis
disconn
ht
subtracting
explosives
orchard
tornadoes
##andrews
corrobor
abstr
decatur
ligand
itg
##inets
brigham
furnishes
bleeding
##working
rescue
nq
comfortable
walsh
intranet
defe
orbcomm
unexpectedly
spoilage
saint
##urst
##adena
refurbish
acm
harrah
delt
sysco
amalg
paribas
verbal
reckless
boc
outplacement
furtherance
ameritech
wharton
worse
potato
nutraceutical
freeport
forr
teradyne
##flows
unle
microt
ddi
##bred
##mins
nucleic
degr
reauthorization
understands
brink
crawford
erg
cfr
sporadic
mathematical
awi
trw
##ermes
revolution
##etics
voic
unse
unum
dominican
rieg
hemod
msi
cabinets
rez
abide
detecting
hospitalization
safeguarding
##aran
friction
fiduciaries
##wine
##icher
brock
##strateg
cultivation
rockford
decoupling
raton
osteoporosis
##ucks
##ucle
peptides
pasadena
universe
##aire
olin
shipper
##umen
velocity
##oulos
##ectable
attit
adaptive
dumping
inventors
searching
##itized
nga
##aluations
completions
replication
nii
reallocated
##clc
pigment
##uso
terrace
fluores
volcan
fdia
bw
lup
##encia
ltl
vander
##coin
##erts
tsi
ordinance
junc
levi
aden
rings
blair
westlake
ensu
holmes
populated
carbo
##maker
riegle
usec
coordinates
racetracks
adss
overpayments
ingram
covanta
camden
multid
inserts
greenpoint
wrongfully
gf
##atar
dss
connor
##opar
goldberg
norwest
semiannual
sabotage
sanctioned
##ocyte
spher
mmp
threaten
speaking
##enh
nancy
##incorporated
##estation
recapitalizations
postponed
hann
reson
spur
adjunct
tsu
spong
iris
##iol
rcn
manually
dogs
##olith
sask
macandrews
##rogen
morton
motorcycles
iran
berger
reevaluated
bba
dts
js
slate
enrol
##itek
##evac
cone
syru
gli
nodes
consequential
enumerated
mcn
cdr
woven
learned
appetite
##achy
rollout
gibson
salons
mains
##59
mortgagors
lh
familiarity
##stead
drs
baseload
depicts
tmi
barrett
vegf
airplane
animation
outright
reality
caus
predictability
bcm
olympic
regeneration
dk
jup
performances
indemnitee
bomb
champions
wfo
##lar
episodes
magnet
envision
##unition
thromb
palmer
##onders
deteriorates
crlp
apportioned
zil
nonb
capacitors
scand
steakhouse
lomb
##erves
locked
bradford
##acher
##graph
reel
apsc
nig
smoke
##beans
levine
booth
ibe
ming
stadium
##hlor
k2
juniper
segmentation
drying
cabl
scaling
soybeans
##dm
andas
salmon
##kson
##rede
changyou
instructional
supersede
mboe
##emedia
morningstar
credibility
sterile
seamlessly
##ergen
1114
researching
##lee
rum
iot
consoles
irwin
nmc
integra
##04
monster
donnelley
tlc
shirts
macao
gerber
kp
garments
biotime
ao
pon
constituents
##opat
programmed
##atem
hammond
cumulatively
musical
crafts
hards
baum
##rid
##opathy
privatization
##ateralized
linn
remittances
##pres
nationalization
lies
poc
brac
ammunition
heng
lund
1031
tug
crestwood
zha
olig
sterilization
iss
objectively
cowen
clusters
retrocession
aflac
electromagnetic
##start
accompany
dispensed
vectren
##antec
procter
##encer
cerc
5000
hes
cpe
homeowner
wick
plantation
unhedged
polyc
prioritize
kazakhstan
isch
##iler
wagner
thousandth
sulfate
manuals
1950
capitated
arco
inexp
shaft
interconnections
whis
catalysts
bigg
cbi
dependency
##hole
mountaineer
divide
lighter
pgs
unpredictability
##tino
arbitron
nordic
kill
errone
poorly
inexpensive
fallen
wilder
mcglad
guatem
hfc
underes
capstar
mclean
suspensions
##loads
jeans
pbo
underserved
##ocation
snf
diligently
praxair
millstone
verisign
##vac
##entan
mcdonnell
solub
marvel
advocacy
##erver
marion
criimi
mcgladrey
mch
younger
##ye
##pel
uniformly
moc
##wei
propulsion
petrochemicals
arby
formulating
paclit
distances
unsubordinated
bitcoin
hig
rpc
wires
confident
disaggregation
##epa
paclitaxel
transdermal
cpr
verticals
directions
##uv
unrecovered
tucker
1962
obstacles
macy
visc
anne
ange
##liant
##asite
ets
withdrawing
kur
wong
broc
##imatrix
eurocurrency
nasa
cutoff
chlorine
underm
ios
vigorous
lnc
lsi
tig
carve
##olves
starch
cnh
fsc
progressed
basketball
airspace
distant
cbm
lauren
pom
##ulator
imagery
intevac
unrecoverable
offenses
##criptive
quasi
inserted
kell
##oba
nike
tone
##wares
##atever
##ucci
chairs
whatever
peoplesoft
marvin
multichannel
##sville
ponds
njng
mlai
sentiment
gmo
bok
coalition
##mant
wise
acp
loews
insertion
zenith
qualities
gould
hcl
ames
gsi
demonstrations
krupp
collapse
spam
alexand
vish
##aby
combimatrix
##econd
##osterone
butter
##ighted
##igene
clecs
illum
ihc
markwest
##ialysis
contemporaneous
##aires
magne
koppers
trending
incomes
anomalies
##ovir
seaboard
##hem
zhu
##come
inflated
baseball
rarely
unreli
cai
nees
honest
antiv
tags
ocular
cibc
themed
addic
contend
ribb
glut
##bird
reuse
newest
##reach
amoco
scha
bcc
##emark
##holdings
pepper
dvds
residing
boutique
brady
eft
ltda
mediated
uncollec
biosystems
mx
nass
dia
unaff
dishon
bundling
alg
shad
securely
inefficient
antim
fenner
gile
mahal
plead
reflection
centrif
rol
organisms
##ilicon
rechargeable
kas
##100
##arz
felt
trem
c3
rheumatoid
##eming
firrea
theory
paypal
hayes
iec
billions
msp
##egra
briefs
gaps
##mill
cookies
##ymac
##quist
##ogram
categorize
scripps
williamson
vivendi
cott
eden
##isle
gul
gerard
agl
preferable
legislators
prudence
##56
daw
unile
indymac
aav
##reets
wellington
architects
pike
tpc
irre
repairing
vip
matern
##mina
extrapol
airframe
dave
amus
chargeback
grape
##lees
hygiene
cald
uncollateralized
##ichi
transponders
acety
mentor
realizes
wfoe
softness
##thetics
formatted
gilead
##93
generics
syrac
unilever
syracuse
chapman
gaylord
carver
##opening
dubu
replenish
##ourt
immunotherap
multil
fpa
explored
lifesciences
preopening
durham
cnx
oppose
dubuque
##92
maui
sanders
##utz
separable
bryant
cii
streets
fruits
gravel
purdue
legi
recs
tours
gemini
transcription
biomarkers
pincus
ngc
##olk
fsi
endow
##elin
gravity
##obut
paints
stratus
brom
##nt
dried
trac
lorillard
dpuc
brocade
##ycl
##antis
electrode
nyseg
unitil
tried
stops
unrecorded
guilty
##irk
abund
hemodialysis
emir
kgaa
ern
zeb
motivating
wait
hurd
##lik
##etm
baa3
##ennan
karen
nf
##cii
aei
defraud
##emi
missed
tant
node
ensuing
qep
housed
dictated
psnc
ftd
canton
tiff
##olla
juli
rounds
onyx
password
c2
##prs
breed
dens
testosterone
arpu
repository
och
converter
gynec
profic
complemented
brachy
sequestration
narrowed
##direct
signet
placer
inhibiting
arv
nerc
steep
howell
pharmacokinetics
committing
polys
##dong
kinase
barc
suspicious
egy
##igne
##azole
intercable
disadvantages
##uez
tourist
##inex
methyl
mortgagee
hallwood
centex
greystone
tch
feeds
platelet
renovate
nve
pti
drops
melbourne
hort
igc
unint
hoffmann
conveyor
courty
hbv
doubled
unreliable
cassidy
##ounge
artisan
shack
reincorporation
allergy
##oder
comparables
##abel
physi
tceh
resales
smc
designating
skus
capsu
constructively
cylinder
backs
novelty
##prin
b7
dole
warrior
integrator
midcap
plymouth
aims
brandywine
vishay
teppco
temple
separating
inkjet
annapolis
inhalation
biol
##lite
ree
supercon
hts
charts
srp
orthopa
hg
gy
egypt
interviews
##otex
perme
kew
exemptive
idec
dermatology
##ovan
##aterials
painting
atsi
mang
bookkeeping
emerald
tok
dash
enjoined
hollow
uneven
nct
discovering
surgeries
rocket
discs
victory
emmis
rci
saic
exco
##csc
calibration
loses
nanot
coils
altria
tren
kellog
##opathic
massive
gulfstream
nyn
heinz
comstock
capstone
distillate
cliffs
mate
peril
ruby
##lair
offsite
underwrites
antero
alta
lud
silverman
unintended
prone
ambulance
bark
##cross
qtr
##horn
consigned
restrain
credco
lotus
hersh
regr
##iao
meanings
pops
biopharmaceuticals
##ika
egan
##united
neen
speaker
rait
##vable
leuc
buch
##assy
hamburg
mandating
billboard
12th
nondiscrim
repaired
modes
sak
morg
wuhan
presses
nmhg
9000
lennar
rayon
pico
equates
diodes
geneva
panda
##uated
trident
kun
cardholders
##hythm
relocations
overseen
kam
climb
shuttle
crowe
examiners
westmor
siegel
overfunded
##usch
predicts
bres
##edes
acquiror
fhc
backstop
carlson
igt
stp
##odt
lite
jag
##quet
roadway
westmoreland
##wal
chubb
cyan
startups
fayette
unwind
detectors
reps
sclerosis
zion
##agency
prominence
##anz
##member
##cript
##xs
secondarily
alleghany
deviate
slurr
vms
supportive
watt
phy
migraine
kellogg
usl
prepetition
redetermination
##96
bmc
rosenthal
showroom
proportionally
managements
nik
thl
pharmacokinetic
socalgas
mcleod
##isbury
tension
activate
##edics
ofsi
westchester
##oscopy
arranges
triumph
##ibusiness
##cb
lipos
fati
shareowner
mixing
eure
swee
agribusiness
stays
avid
##ercy
reid
phd
maximizes
floorplan
veterin
shing
isobut
jackpot
regis
##iak
ottawa
namep
cognitive
unaffected
arsen
##ferencing
jaff
##chlor
merely
##feasance
apa
##lop
##oglobin
edwin
ecosystem
differentiates
chocolate
recycl
ceres
banco
realigned
bf
spc
gmdb
##laimed
lcr
ernest
tracker
reputable
hirsch
##cester
##aring
##access
foil
vantage
paw
fairfax
seasonally
jerome
theoretical
stacked
schn
disapprove
##graphic
##hound
harley
exercis
rsv
lamb
hauling
##agic
meaningfully
evapor
formalized
thunder
rins
conceal
marr
pill
appreciated
ckd
udr
camping
importers
neenah
mayo
mccorm
prompted
controvers
##eart
statutorily
putting
headed
ahl
candy
cbre
incompati
subrogation
knoll
cnb
osm
euribor
salisbury
marin
milton
shoppes
francs
wtu
goodrich
rebalancing
brachytherapy
##osic
systema
voi
ebitd
latitude
riversource
##acs
transacting
jj
tunica
recordings
malignant
tues
contango
das
kear
reengine
wasted
exempts
tron
discontinues
qf
glp
bdcs
regulus
swaptions
notifying
bugs
stratif
denominators
magnesium
rga
coul
symph
commercials
crus
##eye
rtos
oakland
nes
##urne
crises
osg
capsule
tms
##edo
rupt
tetra
chf
scans
##riad
nar
##iency
deleted
propylene
##otoxic
##ieties
##olis
litigate
subless
subcutaneous
proph
alerting
thal
##umet
greenbr
enthusias
subservicer
unbundling
rpi
matthews
nsc
aegis
stif
dye
fitzgerald
landscaping
chancell
rome
ofs
repro
bim
dwr
remarketed
opportunistically
tribun
dnb
refinements
quantification
janus
reselling
heller
24b
sight
gsr
##emer
polyurethane
healthsouth
##eutic
photography
##asion
alza
transient
dangerous
##rail
reinsure
##ithe
##enger
immunity
paydowns
sexual
swapped
autonom
tt
##gue
proportions
conformance
epil
grinding
herman
##uded
symantec
auxiliary
##herent
lacked
solit
equivalence
mong
timetable
jing
biopsy
tuesday
tess
relig
##beck
petersburg
lpc
juven
sungard
implanted
jwh
cree
byproducts
surfact
mike
birds
stry
psd
macd
##orph
guatemala
dma
maxwell
barnwell
attracts
##oral
stands
opuc
stero
exercisability
tiger
##trad
fertility
fischer
irl
interventions
belonging
negotiable
gk
soap
colocation
pharmacists
lounge
pell
chancellor
##itter
##fen
surpass
prospecting
martha
envelop
cct
##ilver
4200
softening
adapted
##emar
caliber
dade
spite
arrear
lightstone
recognizable
fatigue
declarations
upholstery
sco
courtyard
##empl
collaborating
pepsi
2d
aaron
creat
##iera
##bilt
polyprop
usg
paradigm
uil
exh
jl
##letes
##aunee
oib
kra
##ono
rambus
##belt
genoty
boys
compelled
hwh
lamps
arl
occupying
1961
cryogenic
supplementally
##icin
asm
morph
rowan
converged
ghana
fractures
sper
53rd
##onucle
reload
##feng
##peg
aec
analyzers
munich
coco
competency
##irs
##pha
advocate
polypropylene
kelley
##ruing
slope
avaya
rosenberg
##zak
3com
nhpuc
ceng
dredging
multiplier
enjoys
##ocal
subgroup
garcia
artificially
##omedia
##otek
prison
aspire
nea
inaccuracies
jensen
##vas
outlay
##arral
eca
groupings
knife
ambig
unexercisable
tony
##houn
silicone
insulated
unevalu
info
rbocs
##ommon
occupations
unevaluated
meyers
violence
##itrans
efi
##related
##wo
apic
includable
##98
cobank
valeant
hend
reuters
arris
prod
radiological
sji
damaging
congoleum
sister
trh
unincorporated
strand
##licity
encoding
advantaged
noncompetitive
rfp
waterford
maple
transdigm
shep
##vier
##eq
plr
dill
nag
##ngs
##witch
capr
haze
isd
##ighting
##electronic
stents
tiffany
marqu
fundra
freezing
hyperion
spansion
clifton
hpt
spokane
systematically
##glo
##intendo
forensic
leaseholds
interagency
##hm
mrc
tourna
##58
outreach
counterpart
travis
csf
nicotine
floral
breaks
joints
smartphone
cpt
asics
##oger
teled
filtering
lent
blocked
crimes
##trol
tarr
highs
spencer
referendum
gramercy
ifc
madden
transc
costco
disposables
berlin
armored
luck
centra
##hurst
##ounced
calgary
comverse
johnston
tcp
celera
renders
uss
ceil
rally
highlands
malkin
tens
vans
##anas
aru
unwillingness
##onate
aiding
benton
tat
entrepreneurs
demurr
chaparral
newco
rcm
stryker
gts
polo
kewaunee
hosts
monotherapy
broadcom
antif
##aracter
coors
stafford
cellulose
##002
embargo
textbooks
aqua
##lox
nintendo
tib
pvngs
efg
ja
joa
buyouts
emitting
##bas
examiner
photos
halted
amy
digest
##strategy
sei
dsus
starbucks
##52
psp
luis
denny
latex
drafting
walt
1958
rhino
wallboard
mss
ras
tk
greyhound
housewares
hypoth
junction
ie
explanations
romania
paetec
hydrochlor
cleaner
bankunited
##meas
ferro
tightened
massey
chey
rentech
departmental
plea
4000
hola
xxx
rockville
ping
##yuan
sog
hpv
##apple
mallinc
gladstone
indemnifies
usps
salvador
remodeled
margar
nia
aln
##krodt
andrea
transporters
levin
ceilings
forgo
##grim
forwarded
##adin
mainstream
mallinckrodt
britain
##ocare
enclos
kacc
milder
synergistic
suppression
glaxo
dfi
wool
jets
kendall
jas
opens
roano
roanoke
##lized
framing
##strip
bluff
nineteen
2038
stabilizing
##ulk
##onson
cummins
timeframes
laidlaw
wim
amino
valv
restating
##alline
defiance
##echanical
xt
estimations
awr
ample
##zel
subcom
illumin
coulter
bauer
migrating
##yph
##idio
disseminated
wolver
##pelier
rti
anchorage
descriptive
schul
montpelier
nug
coat
slide
##owers
rw
sank
uncommon
myriad
agm
leahy
##tox
fundamentally
robbins
brotherhood
calhoun
coeur
ambass
pra
studying
maxx
fei
sjgs
##enius
outline
doubts
lucas
##usc
merrim
##chr
drex
##lese
commentary
fixes
inks
knit
bmo
1112
oibda
hsd
rises
rescheduling
##uca
##oscopic
tailings
##agra
##uay
kd
suffolk
microstrategy
possibilities
broadens
ameri
notifies
defeas
phmsa
clearwire
sarat
##alum
indemnifying
smb
zhao
##uang
1963
markups
##inea
gibral
decker
broadest
pilgrim
tortious
zebra
etf
oriental
bipolar
cbl
microph
urinary
safeway
##lynn
parentheses
##itabine
atp
brooke
##zzo
negotiates
donated
certi
sizable
focal
delegation
maria
sanitation
translates
imo
execut
##anooga
onboard
scm
fatal
##meyer
overheads
locomotives
tended
defended
chattanooga
##erz
leathers
android
hopes
pruco
pleasant
vag
simulcast
generex
supers
conditionally
stifel
abdom
css
marcum
hectares
disapp
umc
##iam
clearwater
gmwb
malaysian
ucc
anr
preemption
crs
##wright
engel
b2b
announces
earthlink
pest
heaters
counterfeit
##103
til
##lesex
reddy
singer
middlesex
##fman
eia
ratify
powershares
rms
##reated
pushed
transfusion
hematology
millim
coral
brochures
yong
mered
arith
fhlbb
fts
echelon
unloading
opc
trenwick
1117
impairing
simulated
dixon
seaw
supervises
atrium
5th
nopsi
breeding
recurrent
##casting
quite
snl
avoc
phosphor
balcor
tej
hawthor
##epsy
arteries
nextera
pfi
restoring
narrowing
vitr
hap
arithme
educating
uneconomic
drg
vwap
##etcher
nexus
virtualization
ruth
thoroughbred
visteon
containerboard
fresenius
14c
##list
genworth
individualized
amusement
bert
##ickson
nvr
mcgrath
belmont
scales
apis
ket
##nessy
defeasance
stb
gigabit
spss
prism
modernize
1959
cspco
q4
haas
officially
cellulosic
phc
kirby
batches
aspir
##lio
dickinson
##illian
displaying
hogs
nameplate
##ippon
sigeco
subcommitt
celebrity
beau
longest
gibraltar
twa
mathematics
##vian
usof
jennifer
embassy
##arrier
vibration
diagnose
##coming
turnarounds
##went
newmark
interconnects
gdpr
urology
renting
##lift
headend
dgcl
erode
subcontracted
lady
jiangsu
certior
fv
##club
certiorari
wip
belgian
artesian
sanch
paulo
##istries
ladenburg
gart
weighing
clarifications
sanford
happens
guangzhou
grainger
saratoga
t1
##insky
##people
##hardt
tribunal
elast
charity
doctorate
##amsat
##ifty
examines
arctic
ventric
schult
chron
impac
##jor
assistants
panamsat
conjug
authors
daniels
andrx
bethes
transcan
entertain
bethesda
infants
hug
carton
soils
shortening
frees
folding
legitimate
idc
##onix
overcap
welded
##arden
sonoma
ete
bidders
barda
nonfor
installs
hook
##zi
tracts
chp
fundraising
ihs
cus
propell
preempted
##rexon
compx
##adata
respondents
##utual
intrexon
paccar
fah
transmitters
dinner
rear
volcanic
##ligen
uninten
assimilating
##oxid
nonforfe
juvenile
culmin
dayrates
fos
sauc
attn
evansville
marker
ulcers
univision
feels
accomplishments
arithmetic
hickory
optimistic
societe
lining
##2000
aap
nobel
tide
##zon
infin
stanadyne
micha
slm
cooled
pierre
tion
bits
tung
calder
encumbering
##amark
anonym
forge
agile
sort
pope
##ocell
mcgee
allograft
##oxi
rsp
donaldson
greensboro
##ecard
fletcher
guinea
reputations
denominations
verifiable
hq
neural
mony
sql
guangdong
whereof
navient
tcs
cens
bourne
unreimbur
tmcc
photonics
nuts
##mos
exploiting
##anti
deplete
nortek
helco
impedi
nonat
carlton
jupiter
##ologous
finders
paving
##zzi
planners
biomet
bottlers
parsley
pts
##dex
appropriated
oliver
facial
emo
aerg
jumpstart
arterial
reproc
fcb
assimilate
compil
intuit
##vak
##imed
advises
chilean
hindered
roman
cushing
solitario
##amlp
getting
peregr
shelter
ug
##ographs
##makers
privilege
dic
premiere
nyc
prototyping
sulphur
isda
##opia
##onau
##ifiers
medley
mclaughlin
repack
quantifiable
recalculated
adept
##arians
##atherine
firewall
nwh
tril
escalate
sdn
plex
xp
contemplating
graduates
infom
playboy
custodians
confirms
coiled
helix
wacc
ethane
fermentation
hcfa
lnr
alkermes
nonaccruing
accelerates
amf
airnet
alp
relic
ensco
carlos
allegation
depar
longview
implantation
westin
setup
swings
##cripts
##idal
altering
clifford
recharacter
##ectron
rayonier
##phase
dresser
zais
papuc
##ningham
advanta
whitehall
mirrors
unco
dri
##evity
##isto
solids
athletes
unman
splitting
kelso
mosc
cashing
festiv
mammography
newman
malware
knoxville
shafts
numerators
entrust
peregrine
ay
##acion
meats
underpayment
accumulations
cfs
crem
curb
nsclc
wak
barbados
verifying
impoundments
cautions
downey
listeners
gos
gras
##icals
##map
walmart
##ectin
acknowledge
##omar
concentra
baltic
mcderm
redes
bleach
##odynamic
customizable
riley
nyp
litigants
spear
##digital
cunningham
rever
##ogel
nel
feeding
mbps
teamsters
nonforfeitable
recompletion
rmc
harleys
shred
##minster
##ulture
highlighted
incrementally
wfs
crda
iber
inhaled
attraction
##idia
mortar
bedroom
homestead
scp
harleysville
precludes
recoupment
wolverine
scor
sloan
##licensed
excimer
jb
##oding
##monta
##management
transmonta
##fts
besides
pst
riskier
scis
##ratic
biloxi
minera
eureka
promises
admiral
respected
longevity
##banks
tantalum
tenet
##branded
##ocytes
mts
domains
responds
##lane
captures
pearson
##ardi
lows
transformer
vectors
thrifty
##ospheric
reactiv
inconven
needles
dubai
amster
hardwood
omnicare
leakage
hain
salespeople
subten
mlpf
progressively
##tish
1954
transmontaigne
restraining
reallocate
husband
##ommunications
ek
enrollees
pregnancy
redesigned
eh
disks
hemoglobin
##lipse
microbial
##fred
outputs
##ewan
##storms
nonattainment
##arez
mab
##idine
encumbrance
##activity
blake
biomarker
underwent
admitting
mbbls
purports
orthopaedic
enclosures
affo
vois
hell
constructs
##anne
##gae
##gie
bpa
##otel
assembling
0000
flour
pental
##olor
geoff
unclaimed
antagonist
##born
##tai
##kirk
shortcom
cypr
shortcomings
kcc
worthington
dus
viewer
dend
drafts
glauc
supercedes
dormant
jackup
settles
bonded
logistic
franchisors
transcanada
disregarded
##dorf
basf
legends
gds
affym
solomon
fleming
hardship
transamerica
assignees
aac
monica
##bio
garr
scaff
miracle
narrowly
philippine
##hack
internalization
germ
styling
hungarian
chemco
olson
retrocessional
hov
nio
recycle
curt
eminent
unreimbursed
lunch
mj
ivan
steiner
trig
gloves
declares
qing
##oia
##pec
edgewater
leucadia
subsystem
derecognized
improb
euronext
stell
normalization
##annett
cups
borrows
clip
carmel
chemotherap
sbl
##asted
solving
coc
smithkline
sail
emails
segco
gv
standpoint
myr
gsc
kess
handler
domino
geared
powders
writers
staying
tripadvisor
tria
##atchewan
flyer
##idan
multitude
saskatchewan
lect
nephew
greenwood
defib
20th
potass
dew
huang
nause
##ologix
hurdles
imminent
otp
sublicensing
##total
blades
inferior
summarizing
videocon
interrelated
##aked
larson
##azyme
diode
##tured
indec
hillman
meredith
freeman
deliberations
pean
redundancies
tooth
roic
zimmer
integrations
tcm
busey
experiments
pdv
glaucoma
sanchez
ascertainable
niches
nordstrom
improbable
##ostatic
15c
bish
pipes
nausea
sz
telesales
##wer
kine
rfc
intercontinental
affir
gle
exempl
defamation
smokeless
colomb
habitat
preparations
ventas
valhi
covent
sheff
##oda
diluting
petitioned
ribbon
cyprus
loud
litigated
radioshack
cing
chipsets
jacob
zoned
lte
infos
##bral
appropriation
episode
payne
phenomen
enforces
humana
##antech
compress
##gm
greenberg
bech
speakers
pretr
suggesting
stripping
breake
reinsures
yeast
laminated
iro
diarr
affirmatively
abrax
symphony
nba
prid
pah
clearinghouses
telev
toggle
hardgoods
honol
chromat
hail
probes
##oughton
strug
##tinence
shot
understated
anthr
s1
tps
adapting
sublicenses
jude
isot
##tson
biochemical
wexpro
nullif
reaffirmed
animated
doyle
escrows
stevenson
motivation
acetate
breakeven
teen
##itably
##izumab
oge
identically
bbx
bbc
sliding
antiviral
hul
jar
emirates
pretrial
greenbrier
uhs
covidien
overdue
arrangers
harland
linde
zoom
trav
spi
alo
sour
cecony
nps
myel
intermitt
sequentially
##icket
dolan
optionees
melt
shea
nail
differentiating
neuro
alexandria
##iating
quarry
cafeter
erm
refurbished
schr
ccb
mdpsc
mcdermott
mutation
cea
jenkins
shaped
enlarg
relapsed
unfilled
safekeeping
##long
##anets
##type
makeup
##ahu
woodland
##rig
pines
syringe
bagg
##ogate
kforce
uci
seconds
##dec
culver
kroll
stars
circuitry
appointments
macr
unlicensed
recruited
calibr
1123
pax
##fel
warfare
undis
netscape
libo
##ptv
bioavail
pathogen
lbs
approvable
lma
rz
transduc
saturn
sylvan
pesticides
nynex
deriving
explosive
checkpoint
npdes
died
wen
##pian
##atron
algorithm
##dell
terminaling
marl
##lt
potassium
wade
symbols
allergic
advertised
aam
powertrain
##uth
boeh
eat
vacating
inconsistencies
localities
##deq
regents
avis
##elling
nondiscriminatory
denbury
adjudicated
##transfer
sioux
fw
comprehensively
showrooms
lengthen
sean
atmospheric
enriched
overcapacity
stef
##bey
butte
stipulates
pab
##vista
gust
filmed
sequoia
eclipse
escalated
zapata
sides
busch
##bot
overcoll
villa
ctl
yourself
configure
udf
careg
cheyenne
expans
hardy
transacts
winchester
amplifier
shelby
anhydr
valencia
bergen
cbc
copyrighted
##hler
##gra
##itu
guam
liberal
sheffield
keller
sts
##blue
fixation
cananda
proration
rebuilding
firstbank
coventry
overland
bankcard
1200
sithe
##igua
elmore
##oie
bookstores
dop
emcore
##patrick
sealy
debris
3446
assuring
##plp
sulfide
gables
unat
remedied
pneumatic
honolulu
canandaigua
##aday
slip
##tinel
##eex
discharging
insweb
unann
lockbox
mmb
##pac
axogen
tempe
kmi
acoustic
ike
portsmouth
cint
wings
usng
##iscan
seals
telephonic
eos
mafco
##assurance
writer
##cox
##lux
ssi
conforms
csg
braun
##ynam
sinclair
cj
explorer
donovan
wamms
discrep
fla
randolph
unannounced
cavity
##ocardial
ica
countermeas
##gb
denim
kyoto
milan
fresno
cogent
dpu
suffers
contends
infomercial
beld
cpm
##kinson
invis
ffca
applebee
vail
continuum
disqualification
incentivize
carcinoma
stopping
imputation
xtr
retal
weber
flaws
contemplation
levitt
purified
oyster
amli
##inco
bans
avnet
borden
hsn
dhl
expansive
qad
bse
conex
lis
torn
reis
ppi
perim
oscill
kramer
##ingham
imply
finishes
##furt
gum
fonar
seq
civic
publicized
setbacks
membr
alongside
outfit
citation
ameris
woman
lih
propriet
computational
denials
lowers
##eo
sham
amsterdam
flame
kindred
qfs
iti
ibew
spots
extracts
tandy
prints
carbohydr
1500
avian
diarrhea
deterg
fingerprint
civilian
remits
lisa
winthrop
dmc
ure
scottish
##olytic
unseason
peruvian
indexing
motel
hof
donations
guess
ryerson
##pace
colombian
bye
noven
eisai
cronos
servicemaster
cgmps
sock
monopoly
reinforced
sich
##uo
##yan
aron
bean
immunoass
deterring
vx
evang
mixes
##102
miscal
dialing
overal
##aki
resolute
griffon
lawson
moscow
certificated
##cock
devaluations
outset
suned
schol
gonz
huff
dvr
leban
cvd
realistic
olp
sidney
##ahi
sunedison
coch
swine
nonemployees
vineyards
traits
##techn
##andez
spreading
zal
##atics
##ointing
kirin
transgen
tsfg
##agram
##etooth
idrs
bluetooth
brush
mpm
##array
hemisphere
cough
aired
bethle
teledyne
bethlehem
##blo
ivax
##enex
msci
distilled
blog
defibrill
pms
angelo
earl
ovec
cingular
hct
subtit
mcgraw
cmt
gail
##atorial
dawson
mei
blum
bossier
miscalc
lucky
woodbridge
anchors
veterinarians
##ecure
digitally
unicom
vestar
functionally
ticketmaster
yach
her2
pickup
##uvant
fronting
adversary
bowel
uncontrollable
mact
taub
vestin
##bore
affluent
stewards
slovak
cystic
meta
##ancere
suez
winery
roller
iceland
overallot
##ogas
ccp
rsc
gsci
pellets
submar
severities
##asys
interdigital
##apc
nacco
pbr
extrem
therapists
downside
exemplary
mfc
##univers
biotherap
takeovers
esq
##nix
##itional
accrete
bhd
##08
mccarth
##pler
werner
unins
wellbore
vn
reinter
us12of
hockey
wesley
3b
betting
##issancere
desirability
conagra
00001
##avour
instituting
spans
ventura
unloc
##urion
renaissancere
##emis
correlations
crl
mckinn
io
alv
bsc
##entiary
leck
##idos
##aka
riviera
ubiqu
dres
b1
elastic
numerical
##usen
1970s
disposes
gaas
oshk
immunology
kroger
flue
erroneous
syndicates
gender
coincides
nephr
##finder
importer
impur
bair
##vy
paths
2040
bridger
frustr
michaels
zar
beckman
detr
nonconsolidated
gpc
dra
rewarding
bishop
chestnut
wms
farr
prere
whir
monopol
lau
##uxe
endorsements
##ilon
strauss
microd
carlisle
flextronics
harper
gin
j2
deceased
##arus
narco
deliberate
confusion
evidentiary
reproduction
##fre
assembles
crystals
uninsurable
malfeasance
appreciates
meris
mccarthy
styrene
fuji
undermine
ung
accomplishing
##essa
##posed
sheridan
mik
##agues
kfc
lance
yog
cdars
baked
credentials
dms
waves
##aranteed
sometime
correspondents
chim
damp
retainers
##parag
skel
10q
sram
ihop
ophthalmology
chew
abel
drum
valvoline
incontinence
##atia
sorting
dishonesty
metallurg
fundings
spanning
downloads
daughter
bullet
oversaw
versatile
##tiously
miner
boehringer
hennessy
nationals
extruded
iras
uncollectable
perr
ej
ifrss
##iery
outbreaks
##kom
richman
darr
vicks
##ileo
##chip
##alog
##erge
mgcl
##qi
homogenous
contran
buzz
casey
mtm
lebanon
chromium
##reeze
delhi
ldl
##universal
leckerman
restart
instructed
gmib
mobilization
categorizes
optex
mccormick
compensates
globalization
utg
cricket
##stens
rotating
avi
aquila
adt
exhibitors
benson
cray
nbcuniversal
postpon
smelting
swanson
operationally
assignable
faults
imperm
polishing
iia
##odone
grc
##aden
jama
ulh
kilroy
nestle
getty
oshkosh
##enna
midpoint
rainfall
phosphates
##asa
crossroads
gabelli
grantees
interchangeable
##jing
editions
approaching
iub
##okes
##lone
refractive
grids
proassurance
aiv
##fkin
##omit
##icides
embark
intimate
springerville
clicks
allegiance
bachelors
pleadings
cleans
telemetry
edit
clad
burton
outerwear
##ref
##forming
diligent
experimentation
c1
presidio
viragen
eua
##ximab
travelport
forged
fortis
perishable
oligonucle
cleaners
magnum
voyager
##ylic
mars
profiling
##amps
apotex
reinterp
fear
educators
korn
vibr
##say
prize
##vex
##ovascular
kathleen
catalogue
solectron
donnell
##mersible
8th
bfi
uhf
prest
upside
overpayment
raz
preparedness
##alis
hexcel
hns
norr
##arillo
officemax
deluxe
autologous
farley
ndr
archstone
chill
nassau
indonesian
zol
##omers
farmout
videoc
remanufactured
bli
bovine
bioequivalence
yarns
##ghan
epact
##yth
dehydr
caliper
frankfurt
cubist
inspire
adapters
##gener
bayou
aeronau
unduly
amplification
##fly
rework
attaching
##traditional
flip
disturbance
hilf
fabricate
kiosk
epilepsy
##uge
waterways
##alliance
##udgment
nontraditional
sentinel
transceivers
galileo
pakistan
hilfiger
nmp
slu
##feron
hag
opera
bren
postings
nissan
villas
lsb
isi
weakens
girls
shi
mateo
copied
trips
##itec
presiding
nontax
mirage
concerts
palis
bug
##cline
haynesville
baggage
cog
camel
alic
desal
fant
reissu
belmond
##metric
opposing
##ulatory
routed
autonomous
##yst
newpage
collegiate
recapitalize
daiichi
resolves
rockland
heilong
font
sis
bolivia
herm
raven
##fcm
1951
##ophilia
##amar
##home
##bursed
refrigerants
zions
burned
cio
##lips
##vic
##quisite
gartner
schwarz
mfg
##osine
deple
textual
overhauls
cintas
eda
debate
retires
undisbursed
tips
wau
frameworks
ascertained
reacquisition
qspe
fayetteville
neogen
heated
prideco
clot
medimmune
afh
desiring
slurry
tf
##ple
beans
fabricators
distor
##standard
foley
spectral
electromechanical
waiving
meristar
##oplastic
syrup
constituent
iheartc
nonbinding
hbo
amerisource
mmcfe
wishing
##cale
calenergy
stories
srs
chemically
##metal
tidel
##icide
kane
alberts
joshua
pbg
perimeter
patches
reversion
butane
trustco
ppuc
sheraton
keyspan
mmds
incompatible
fum
##yles
perfor
flush
##uto
salesforce
##undo
aesthetics
liaison
regression
adventure
carmax
iheartcommunications
burg
screw
##persons
feldman
nonbanking
nabors
preserved
buen
mansfield
macdonald
fors
##illage
organizes
##xiom
##ometric
infl
unenforceability
tsc
aocl
##avax
lufkin
uf
firstcity
tampering
overallotment
aq
joli
slag
##eralds
hpi
brookwood
tpa
forthcoming
simplicity
turk
acxiom
docking
outlining
calam
missing
blowouts
illustrative
bmca
bareboat
garner
blackhawk
daimlerchr
nfs
narrower
moor
cartons
loom
ibs
defensive
##iris
##tment
##pharm
5605
crosstex
rupee
gtc
maternity
##urf
forrester
usury
marginally
##itions
insur
retainage
fss
recondition
arrearages
joinder
metroc
##timely
welch
arbitrations
rics
untimely
unlocking
tacoma
hale
##gear
donors
##connect
keen
daimlerchrysler
mda
denault
sponge
upb
understandable
shapiro
lobby
##ryst
stewardship
heilongjiang
wink
policing
sewing
pelican
arthr
refranch
##lios
##idex
qa
olive
vandal
wap
##emaker
##eteries
agonist
##abr
ungu
blade
angioplasty
unwanted
adjuvant
##berman
retrieve
guild
passport
isolate
peachtree
pie
metrop
pentalpha
pairs
angle
3517
miners
packer
bakers
##funding
bernardino
wcc
##wald
carbonate
lil
angiomax
unguaranteed
donna
finco
##valued
##uras
glendale
##tenstein
hemophilia
hastings
ank
referencing
backward
cerber
##ampton
intervenors
nontaxable
##urements
nsps
abdominal
impurities
documentary
malignancies
cyb
curing
descent
acne
fnf
gibbs
workshops
nfl
##omet
passbook
scrubbers
vicksburg
cymer
sync
remitting
joliet
agi
##upon
assurant
##omc
brewer
unrede
intermedia
separations
pdp
kiw
50th
vandalism
sna
lmc
fitzgeralds
competence
proppant
##ecr
noncompete
heretofore
decay
xto
cephal
xo
ethnic
utmd
backhaul
editor
irlcs
tailoring
lr
crt
mvc
herr
##alty
posit
sov
danish
sutton
##bson
sfc
yi
forcing
tanger
bakeries
synchronization
wt
breakfast
##otheli
##xing
barber
newsletters
mcgu
endorsed
10022
redirect
crushing
##eded
moran
mdi
ein
raf
sunlink
middleware
trinidad
quinta
##ospher
factset
competed
clover
hua
pei
wacker
progn
legalized
unattr
directorship
biochemistry
unredeemed
obsc
subpart
abatements
sjw
##elis
broward
unattractive
northfield
cruz
inev
addiction
mips
##hui
iroqu
biz
excavation
fluorescent
dhs
krat
uniforms
caustic
ich
kci
anaheim
##gem
clc
skywest
bellevue
iroquois
bmi
haft
emi
sunbelt
##erick
migrated
zhe
compuc
acrylic
refusing
cocoa
##eenth
##tenberg
paladin
oi
alkali
ilu
polysilicon
pits
##free
##major
eti
zimm
cid
tyson
flown
nights
##liner
downhole
raceway
exhibitions
weaver
mpeg
sanmina
locking
whirlp
baking
hcr
traveler
melville
mckinnon
technician
visitor
cia
worcester
ftr
canned
dockside
##liness
horw
supplementing
##weighted
rosewood
curtain
bph
hea
aquatic
ceridian
abetting
pavil
reproductive
reengineering
slee
ignition
##onal
infill
cotter
joyce
jps
machined
briefed
gind
pioneered
practitioner
##locations
penetrating
sdi
reade
intral
daytona
##plex
counting
abandoning
deutsch
##comed
immunos
##onda
foregone
membranes
affixed
alls
actionable
drugstore
redef
surrogate
##homes
cnc
cemeteries
plywood
pitch
biggest
conclusively
ddr
concurrence
harder
stimulating
vanilla
ale
olivier
dialogue
retard
towne
honored
xpress
adjusters
amtrust
##lycer
##oka
wec
culinary
efih
lanes
oneida
harrisburg
confined
##uli
electros
xiang
coherent
ki
nitric
slud
epit
longstanding
sugges
disrupting
divesting
nms
##105
diverting
dti
artwork
gregg
iter
wedding
myocardial
textbook
aegco
drc
antioxid
nursery
incub
gastro
borgata
msas
cie
endanger
crash
sapph
bmw
subtitle
celanese
horton
truly
##phal
glas
##nex
manpower
synops
naico
fms
precurs
magnolia
##202
geoffrey
nylon
marg
prophyl
##hp
vineyard
##sburg
tradesh
cooler
fog
orr
ags
ltch
retinal
oec
oxim
credible
ascs
troubles
churchill
isr
telcom
pren
assimilation
relational
pullen
dfs
catar
prosecuted
gins
000s
stick
tfs
trups
pharmacological
bioavailability
cuc
##etted
waterm
##ameda
nant
disqualifying
baux
gabri
tracy
pentegra
commerz
seacor
scripts
parlia
graduation
racks
null
installers
imprecision
tungsten
ges
alameda
##shaw
giga
randy
##actic
disagrees
teamstaff
sichuan
flan
cerberus
ders
preex
glac
fraudulently
urs
aws
kol
ampal
25th
bechtel
sends
confirmatory
manitoba
flint
##uro
systemically
quicks
standardize
mcs
preexisting
granular
cooperated
purporting
6050
feng
gindin
lord
nhi
homesites
neer
papa
aerojet
chaired
brack
##ollinger
tightly
wans
workovers
timken
schmid
pdf
##tinez
##letree
vial
playback
sfda
conceptual
trimble
polk
##econdary
cbt
personalization
facets
allete
flux
induction
millimeter
inorgan
postsecondary
##mod
##afee
tonne
prejudgment
html
lf
transmits
cma
reborrow
weinberg
##tman
metered
cbot
polices
reimbursing
inactiv
overturned
consultative
wilcox
omnip
forgave
payphone
bisc
zimmerman
garment
plano
lansing
##eroy
charm
refuses
depreciating
stevia
modalities
taubman
##ogenicity
unisys
gulfport
hydrochloride
tup
##thia
rust
fairbanks
##bots
embry
twitter
nue
##dal
##n1
##atan
clerk
npl
ladder
t2
semis
##naissance
fus
subcontracting
inconclusive
13th
novation
midlands
microcon
underwater
rollins
toxicities
xml
##atex
canon
dwellings
ibx
##business
soluble
amh
##vieu
impermissible
totality
tomato
belvieu
wounds
##ptibility
crj
equifax
reconnaissance
commutation
irbs
dissatisfied
florence
##sm
10k
colstrip
bausch
bauxite
ding
##aci
urea
ama
gog
seize
autol
##pak
carrollton
tying
verint
gafri
mgic
wagers
relinquishment
prsus
##cam
royce
ethan
mgi
lags
newbridge
emanating
isobutanol
killing
excal
telecon
injector
belts
perpetuity
tjx
evangeline
marietta
##tie
##quite
ipps
liz
ora
westminster
jcg
xu
##flu
##chain
quinn
2500
##enstein
##zza
fashions
bays
iphone
nonr
sfpp
bowes
atlantis
ramsey
recouped
myelo
reinstate
xbox
##arro
lx
##now
triarc
##my
##aceous
##deon
urgent
instructor
##tgage
vonage
vpc
##2o
1100
alberto
tidelands
cly
##np
suz
seps
sims
##ertification
mep
worthy
atmos
deactiv
firstmer
biovest
sublicensees
nce
wf
wain
##enas
eic
##tend
unacc
orchards
cmrs
fight
tomp
cane
bridgeport
pbfx
fuse
bra
easton
elizabethtown
##ograms
spy
harlan
commerzbank
doi
elabor
##sbad
mtv
affymetrix
##ras
rationale
mesquite
tahoe
grafts
button
lindsay
cytokine
uncollectibility
reactive
carlsbad
naco
infusions
##rine
##arag
wiley
##ibe
huntsville
##ondale
##inating
sediment
##umont
subcommittee
separates
reevaluates
lonza
bravo
ratch
gallium
cytokines
mongolia
ani
##ibur
##orah
fits
tbc
xvi
myeloma
sparks
candle
robots
drydocking
firstmerit
##inable
##vertible
##ilium
##brecht
imh
##omycin
maz
leds
hidden
chromatography
##heng
pdl
remodels
whirlpool
imi
arrival
susceptibility
qnb
radiant
##awk
enb
snh
bison
miz
firmware
harmonic
briggs
penney
pyramid
desc
terrestar
convince
litton
needing
vpn
shah
oldest
bureaus
emitted
hci
cohn
smp
##anan
whx
perfum
serono
##otechn
mcafee
wheelch
playstation
rationalize
antagonists
##hong
coag
recorder
laminate
trunk
michcon
pbop
transistors
bankboston
breaching
recaptured
chong
forums
##antown
washing
bulletins
trio
substantiated
yum
mrv
blount
coalbed
##acious
dynamically
hecla
##proof
termed
epoxy
shadow
priceline
##ideo
boone
excite
cagr
conformed
router
eyes
cst
unsatisf
biometrics
##econ
unweighted
donation
frances
##vien
fow
vaugh
##die
tol
prohibitively
keny
wiz
ipuc
judy
hodg
##oter
suzhou
insulate
hotline
svp
nippon
sau
nordisk
unsatisfied
naft
bookrun
zhejiang
eating
##luor
teacher
brakes
smg
gnc
houghton
##avar
berth
linden
coffey
##onet
congo
iluvien
##aline
##ocrine
jian
wto
pbx
leaching
##arten
emotional
perils
reopened
ist
lared
##hel
##dated
##osity
marm
patentability
uniformity
vinci
isdn
lawyer
mp3
nicarag
pue
trus
affirming
wonder
##trak
sharps
orthodontic
tompkins
btg
##fums
effectuated
##dis
colgate
subparag
pavilion
laredo
##national
##herty
administratively
ntn
listening
##yls
yam
##range
hdtv
sapphire
leve
diminishing
rens
alion
jur
##estream
ecol
##zoo
abundant
abf
athens
galvanizing
biov
lifestyles
regeneron
subparagraph
cyrus
naphth
bundles
wexford
automating
bloodstream
##boldt
stefan
careers
predefined
pantry
bruker
cogniz
##mw
hartman
sacr
##ancer
reconstructive
##horse
sra
grower
proceeded
learners
yt
recipes
jia
rtc
creditable
atmel
##andi
underutilized
homecare
untreated
anthem
higgins
dno
seasoning
oahu
xy
elementary
dosed
trails
##uzumab
hms
shipbuilding
##kase
schre
##letown
missions
sankyo
forefront
grapes
##eria
overstatement
##loyalty
##workers
hanna
vt
alien
ols
trak
voters
tricare
##axin
unity
##ackaged
jostens
##ecton
dvl
accorded
##etron
1101
##choice
##sels
##beam
postponement
circulating
ovens
songs
cyclo
biotherapeutics
humid
adapter
bolt
resonance
conten
residency
middletown
emery
uter
labr
ccl
videocass
energizer
py
swan
odor
payload
##ipple
chc
9062
got
uhn
calvert
halo
ogden
##issa
supervalu
rescinds
dsc
harbour
paydown
templeton
##vedere
smallest
ipg
elevation
cwip
subfac
##urgard
shurgard
belvedere
capitalizable
embodied
immunotherapies
##embers
mdu
##quential
nonconvertible
sediments
lug
telegraph
inorganic
##mount
deborah
lojack
benefitted
polyone
jmp
radiologists
underlie
precipitation
##mally
proshares
respa
##centers
trex
hyund
saturation
acnb
grubb
chalk
educated
hearst
hawkins
accel
scpsc
mund
qcii
concur
ico
##ostic
ellen
proton
conexant
nai
inconse
##ivir
dct
##alay
submarkets
##heet
nsi
##omputer
biomaterials
cytotoxic
vocational
compilation
##cover
genu
##aughton
whitman
inconsequential
jor
##ught
toxins
platelets
wass
##uation
sfx
waives
##obi
henan
pls
spd
flowing
arrowhead
##anting
##yu
detector
ivillage
dsu
stephan
pgp
plane
##ovich
acknowledgment
hyundai
21045
fibro
naec
opr
efficacious
noon
helm
allotments
argued
hacking
##gren
justification
ops
##xpress
idea
##ailey
haley
##latin
##atek
ivd
conrail
atv
minn
winner
computershare
##apped
cvc
xvii
brett
loose
archer
hank
holog
schiz
csrc
kaufman
monday
initiates
reissuance
humboldt
screened
dismantling
housekeeping
dcaa
mox
pitney
##uka
##din
##gro
cynthia
##yi
fujian
ebitdar
modulation
ilm
synopsys
hpc
bentley
rse
equipping
sealants
quoti
jeopardized
excalibur
hls
tmc
tmr
tara
##vious
scb
##ogenics
gms
itcs
circus
stamping
nah
##kind
aston
corona
superiority
tendering
talents
mrna
yogurt
breweries
mish
hai
joaquin
##tient
##amiliar
bookstore
unfamiliar
tdma
krona
contractholders
wges
##hop
##fins
doubl
stepped
##atherm
##eka
msv
embe
1957
telco
inspectors
fitzpatrick
crusader
keyword
##leman
mmi
signatories
similarity
fellows
embezz
##teries
intervening
lungs
disallowances
plaque
superstore
fifteenth
cohorts
sanitary
scrubber
##agh
##bei
sogou
jda
##earr
phs
seeing
resignations
depended
mosa
##cane
##vox
##omod
prg
presentment
ivy
deprive
nonin
smr
biodegr
hood
ores
zheng
shocks
pimco
pj
outpaced
writings
##zes
proofs
alia
coaches
beard
alti
antidilution
embargoes
##csa
inh
shopper
waypoint
genesys
##owoc
brc
sds
##osure
rockwood
cmf
##itrust
ahc
##mus
csmc
angola
adsl
forging
##iverton
scaffold
mdr
commiss
eisner
13485
netsc
##oking
ridg
xoma
##odia
themes
##opartic
sweeping
##otides
weekend
neurode
subleasing
hexion
dillon
ventricular
tiverton
prearr
##comb
rejecting
kmp
mta
debilit
mdp
cabling
##yang
##branding
jennings
cognizant
adit
tyr
##istrict
##eno
confection
easter
nand
peace
enzo
dispense
anonymous
jamaica
##mach
citizenship
withdraws
kf
##shi
boem
boot
tully
arbitrary
cassette
cautious
hershey
easing
motels
osp
srl
orbitz
intermittent
##vet
kitchens
##urious
nek
gao
napa
jacobson
stems
apts
bran
supermajor
tucows
cohes
grams
transforming
nafta
##ocom
ingers
comparator
impeding
sif
insolv
brewers
invited
diges
schizoph
schizophren
omx
beryl
##greens
##trin
sugarb
taxi
gillette
energyplus
pice
harman
centurylink
beecham
agonists
curtailing
supermajority
insolvencies
zcs
uncover
walden
cartil
registries
treasure
ils
bcbs
dcs
vg
avenues
##crs
aik
floyd
wests
aure
hsp
diving
gad
mitsui
parliament
iib
cous
##scan
alarms
decode
uan
payee
##ypt
capitalsource
els
##ylam
6000
##cyte
frontline
museum
patel
showcase
antimic
centurion
semisub
##asota
chu
counters
carne
proficiency
evan
conveniently
psychology
quotient
ingersoll
objected
sandwiches
heloc
chelsea
##opoulos
volvo
burdened
piceance
##body
usp
claridge
tremend
##cyc
informatics
grantors
dolby
casa
intersection
unassigned
princess
bingham
automates
cnp
abnormally
antimicrob
pura
keycorp
##genix
softs
toh
formularies
loi
estrogen
emulsion
accountancy
rodney
fined
inexper
guiding
pliant
ned
wadd
wellpoint
chico
ggp
malcol
brazos
axs
cork
gfi
consenting
rutgers
##asy
breaking
mails
destructive
malcolm
##ggish
underestimate
sluggish
daven
cartilage
unic
salad
capri
ans
ritux
##court
workshop
redr
heter
showboat
cullen
amalgam
consign
distiller
##john
melting
davenport
##atable
hasbro
hose
enthusiasts
conferred
onco
##haz
tread
analogs
evolves
chartering
subfacility
carrols
argus
depreciates
rituxan
married
nationstar
crystalline
ester
prepackaged
archiving
infor
##olt
doll
guo
##ido
##uctory
##acycline
viewpoint
downloaded
resumption
caremark
surround
pdu
gastric
allscripts
expecting
boating
introductory
nycomed
chartwell
argon
##yra
medco
##fold
tsmc
debilitating
apopt
keeps
expandable
promulgation
kirkland
##ospheres
homeside
intervened
siebel
kva
redistrib
##fix
##tag
##itance
madrid
investigatory
viskase
subscribing
multidistrict
nyiso
siebert
allison
acceptability
natur
validating
cgp
rhodes
##uman
nonstandard
depleting
intrusions
kbr
##bailey
hammer
schizophrenia
##umping
rooft
blackout
fomc
wilfred
tnc
##ype
canceling
attitudes
opent
wolfe
tidewater
yun
forex
motient
1800
nad
hardee
augmentation
bolivar
iptv
syringes
horwath
simulate
andre
miff
smarts
rodino
mfs
##hing
shanxi
schwe
mcin
lotteries
malonebailey
stc
1875
empty
mucos
ante
laminates
chl
manitowoc
##kill
akam
courseware
afm
ritz
sbi
##ebok
softbank
intercarrier
answering
menus
ureth
banana
2050
activision
##tilus
packets
##nik
##unk
impediments
anna
##ozan
pcm
reclaimed
inaccuracy
christensen
slic
##ycles
##oxy
##roup
shores
fatty
dislocations
infine
controllable
avan
sludge
gone
outstand
handlers
##olastic
hogan
##oil
mif
##tation
facto
flatten
##etris
4999
absorbs
ergonom
usci
pollo
workflows
icd
nicol
fiserv
illuminating
voya
microbiology
litt
sizing
##pack
##ustat
##fields
mercedes
overlay
##mune
##oskel
basement
depositing
##iffer
tcw
preceded
purely
kohlberg
overbur
anthrax
poison
messenger
weil
judgements
dwight
generale
##rette
addison
##avia
argos
nontransfer
lifts
##oughts
##kol
struck
beaumont
##hook
optioned
15c3
rer
invacare
taught
predicate
rsl
kemet
shee
adhering
katy
##opro
unrated
livingston
##olife
reebok
monoxide
##tieth
earnest
##ynchron
##rm
stend
silk
rohs
pdi
6th
##stones
##seed
gut
ranc
##olysis
confron
7th
packers
helen
linac
strayer
norms
harbinger
inlet
demutual
jmj
##mel
delmar
flagstar
##emak
icm
navigate
disinfect
ida
backlogs
pandemics
manifest
##aga
walgreens
##deen
mahoney
weyer
broadcaster
talbots
guyana
shake
mcguire
cavern
proving
##fully
everything
##tein
##shan
##ematics
opioids
mistakes
bartlett
lars
scholastic
teens
venous
##avan
pulitzer
huron
masks
nepool
desalination
plot
ch2
italia
similarities
gabriel
encompassed
instrumentality
stur
crock
stockton
flower
prosecutions
nus
slim
dermal
##5s
acf
richland
##trx
transatlantic
volunteer
mounting
1953
##amo
norcraft
37475
twenti
##partners
riggs
tai
twentieth
ata
polytechn
sonet
cube
olefins
zcsia
kurt
gallery
##omedics
margaret
unifi
seca
epidemics
##ardia
afores
acmi
partes
claire
pds
harrington
assortments
religious
doubleclick
xxi
nomura
ffb
idi
laura
interdep
##heon
conductor
microorgan
ccm
noc
westport
rsi
src
transm
visx
heath
gase
braking
7000
millipore
lllp
conoco
doubletree
alcan
contour
photographic
eec
oven
moissan
essence
ning
highwoods
multipoint
nautilus
gcr
hayward
everett
refrigerant
tiaa
alnylam
9th
##cut
lumin
clair
immunoassay
ratchet
ncl
oss
dci
##gold
##iza
newbuild
1300
possessed
roadhouse
pixel
##product
cortic
moissanite
ngp
quint
kilowatts
boutiques
biodegrad
##abi
##oxin
professions
ibis
nti
pfo
inasm
sinai
logical
inasmuch
quarr
modulators
masc
q2
vegetation
auxilium
##ynamics
accelerator
transcontinental
snfs
jaffray
carrybacks
maturation
specialization
jf
lobb
aforesaid
approached
palisades
quicksilver
##endon
##adex
##astin
atg
##weed
espn
byr
##irco
##bay
intact
##hae
ameriprise
##dicts
cmv
coolers
##123
neutrality
colt
qc
meh
poster
subsidize
monmouth
ormat
##abank
roa
##tea
centralization
gemc
englewood
cloth
anxi
archive
nonaccretable
lich
strata
jewelers
##andoah
cancerous
shenandoah
caiso
salespersons
hdd
##anova
marie
##onetics
undrilled
##etouch
owen
transferors
reeves
ischemic
prearranged
ecology
prosthe
##itic
uso
garrett
awp
cats
kok
martinez
karl
polycom
gwh
##kers
skip
kingston
##glomer
becton
##adam
syntel
hed
##tsch
dominate
fals
submarket
nearing
thermoplastic
##ross
amk
ppd
grocers
implies
exciting
##vaco
gug
reopen
illegally
##sight
accumulating
tremendous
vasce
alamosa
gens
wmi
redeployment
##oderm
depicted
coordinator
dans
goth
niaid
seym
onvia
edm
##kl
costar
seb
verdicts
sng
wattenberg
blockchain
kimball
cobb
sybase
societies
ameristar
sauces
##ipe
1930
tpi
inmate
distributorship
ncs
ying
preston
seaco
qi
##amor
coaching
extracting
##romycin
dang
trays
##emarle
veto
heirs
droughts
smur
##quez
albemarle
caldwell
##dx
##incy
aem
g2
climatic
reacquire
worn
biotechn
stipulate
rag
##elink
layoffs
coffeyville
angio
##oscope
nabi
remanufacturing
zi
rodrig
rey
overly
keane
prevailed
vim
trended
outcr
cannabino
plating
##orship
##metto
subservicing
chipset
banctrust
holt
batt
##adon
draper
liners
urug
quar
gyr
xyr
kmr
jub
mbc
wed
protests
landline
wpg
dcc
sharon
##omach
incyte
vascepa
convertibility
palmetto
citrix
ulcer
ameli
lubricant
rsm
willowbridge
mifflin
ness
peerless
aberdeen
##xa
##itations
bee
rectif
landstar
outstandings
agro
##awei
insulating
##uber
evercore
dap
eac
##omide
etr
##icz
meda
smurfit
americold
equaling
transtex
shan
##akis
brookdale
smelters
buchanan
wgeservices
##wing
csl
conspired
waddell
ely
subhead
baxalta
##azine
latent
##zoil
desserts
ugc
avatar
realizations
terrorists
benign
worlds
tremont
sgp
montau
sonus
mesaba
eisen
query
##veda
caval
strugg
##sboro
autoliv
##bon
##ivo
extrusions
##ritic
brus
esoph
subtenant
wwe
abetted
grim
ipalco
binder
guidant
explaining
gaseous
##lain
panasonic
palms
aztar
##iest
stanton
estop
summons
molten
birch
honduras
cosm
dozen
inspir
atrial
christine
smepa
horses
lbi
garrison
dax
##anth
enova
sykes
glyc
multicurrency
ambassador
heap
hilltop
pennzoil
cary
##coke
qualitatively
fabricating
tlgp
closeout
glycol
gic
herbs
humph
nanotechnology
genuine
hydrop
flynn
##kw
fuze
##estim
##ecks
unitedhealth
chapel
uaw
##du
emory
##builder
##vantage
melvin
##rg
env
nfc
haver
gis
loy
collocation
telematics
veteran
lcnb
tejas
bno
diminishes
annexed
abil
multiplexing
locomotive
##ament
macrom
surveying
pdufa
##aken
gpos
##iar
certificateholder
##olson
##ellsch
axle
ldc
##icking
binds
bci
crushed
osteoarth
wn
##lace
equis
procures
pathfinder
lexmark
##flower
hopper
correlates
norris
hyal
17th
alamo
sans
royale
##enium
scientifically
##oon
##lis
##mr
emergent
celes
zhou
oms
emergencies
inspects
lifepoint
fetal
neurotr
hars
##walls
revital
resells
sherwood
##ded
##atm
subtotal
##operative
glenc
envelope
##stry
sbir
thoroughly
meag
planted
lakewood
detract
##haeuser
brod
radiopharm
##aler
rejections
##inol
summa
##isson
spends
idx
angiogenesis
moon
peoria
wearable
##prom
marlin
freescale
sewage
analgesic
##aston
byproduct
valen
16th
interpol
noting
##ansky
dataw
palomar
lact
inspired
inventoried
uspb
ffi
uncorr
egain
seymour
##ellschaft
dps
clientele
##mobile
championship
shuff
stratton
bcp
microturb
c4
afghan
farrell
wilderness
29th
edg
overburden
mce
neder
brandon
401k
rvs
shawn
outdated
wants
lends
##elco
amti
quincy
shoulder
orthopedics
eam
##anka
airbag
dsd
kwhs
##ogee
gbhc
unintentional
greek
herbalife
overcharg
realtors
ecg
fsic
stee
nypsc
##icam
##ulant
57th
##orks
sacrific
dhc
gur
iri
parametric
banquet
lima
lj
##locks
##anca
tlr
newpark
libel
demurrer
landy
repo
u5s
##bler
sche
scholars
diy
##span
stockpiles
pdvsa
uruguay
bep
residues
reconfigur
wimax
morale
offense
setoff
idling
##acic
briefly
net2
polytechnic
underinsured
moral
solo
ahi
overstock
mcco
boundary
nvidia
vom
companys
##loo
potable
embra
oxidation
ucla
embraer
mewb
raid
communicates
vad
renegotiating
rods
poin
runner
tendency
localization
slides
pfg
pueblo
anxiety
##isi
spares
##acea
##fect
##made
parental
photographs
dhi
rcs
epith
loaders
##asense
schein
chemistries
mercad
transformed
herald
##hyde
sgr
talbot
veneti
weinstein
dobson
eqr
bris
substantively
abraxas
nektar
itin
10d
cadiz
acetylene
leu
npamlp
3dfx
lithography
mosaic
mono
##atz
##loid
lq
sma
taiwanese
stagn
dishes
coded
transceiver
weyerhaeuser
vienna
reclassifying
chrome
cpcn
##nski
##etra
prospectuses
lihtc
programmer
authored
aleris
lemon
furman
##tholders
arvida
carnegie
tet
rosa
antimicrobial
insect
insectic
avoids
guggen
mewbourne
##tgen
wcg
belden
##erich
##tistry
nfp
ingot
cultivate
tbs
professionally
dosages
hef
servier
latency
implicated
gannett
anita
recomple
expo
finn
##ercare
ergo
entrench
340b
farber
tbas
cach
fairmont
huawei
mackenzie
ajca
depressive
nysdec
##agine
msha
afghanistan
disinc
##ateralization
topeka
displacement
golub
sheld
norcross
##hed
flotation
menlo
gpsc
templates
##states
whitt
conductive
inherited
councils
##acellular
reznick
rpp
##ento
flamm
centura
cirrus
hoover
invented
keating
dayrate
vix
trg
##generative
fungal
physiological
troublesho
producible
emg
uncorrected
isg
scw
teleport
sdr
apria
negl
##veston
ici
chees
epidemic
ebs
gom
##formed
baylor
donnelly
dpsc
reval
laughlin
claud
workings
denomination
##odic
cannon
jasper
oca
dartmouth
exits
##holm
remodulin
catherine
kt
outfitters
##check
flavored
viasat
comdisco
gics
##scape
degrade
algae
purchasable
galveston
djo
sentry
scandin
univ
sunopt
perryville
muzak
donegal
marco
ou
abx
intrac
simulators
##asses
parsons
hutton
geochemical
sass
colin
perspectives
sits
consults
walking
grie
aggregators
rulemak
ultrasonic
powdered
rulemakings
drey
##fon
miscalculations
accent
ate
seniority
commodore
progressing
compromising
ballast
saddle
fears
neurodegenerative
##whe
seem
mandalay
heparin
adul
primestar
lumen
medina
sunglass
dmr
yates
##urization
##egris
degen
juices
sublessee
dahl
abey
domiciliary
##ervision
adesa
gaiam
diseased
kangas
mst
scarc
sax
##scope
plugged
##itone
gathers
ambr
msw
joan
lacking
autoby
##ecomm
carrington
keyboard
rebound
approximation
exchangers
judith
bombard
##liffe
pscs
lasts
stationery
wabash
telenet
boomtown
unmanned
inure
southside
ees
bx
mplx
teng
sinus
mismatches
##stadt
##structures
heavier
##vington
jonway
dislocation
forever
attains
dressings
curative
welsh
rhythm
##ss
overcollateralization
electrophys
harmony
roseville
##itar
allin
sah
myron
inhibits
reprocessing
##while
collector
gpo
cession
packed
macintosh
vanderbilt
##kine
longwall
photoc
cytogen
brentwood
festival
eph
##anos
claib
conveyances
bradstreet
torrance
cryolife
##steel
veeco
##prints
s2
bunker
##stitutional
uncontrolled
##rp
frp
smt
suther
autoc
encapsulated
subtracted
sequa
dictates
schnitzer
yak
thai
##titled
njr
ikon
cef
apf
deliverability
mii
ptab
nullifies
sunopta
oncologists
conrad
inclined
coy
bacon
eci
##arbonate
miniature
lps
esche
coincident
brackets
ftse
##email
lightning
perfusion
restraints
##addin
noncredit
##bergen
coerc
nanjing
browsers
venetian
dear
simulcasting
claiborne
jimm
##ologically
delic
##cat
beams
stressed
yorktown
##ostero
requisition
caith
elevator
tessera
tournament
esas
farmington
magnify
caithness
q1
ussc
autos
schmidt
epl
tighten
tutor
demutualization
ferah
rrp
autobytel
hfs
##auga
cathode
ebusiness
##gage
counterfeiting
interconnecting
2044
nontransferable
mpp
expressjet
danaher
clarks
michelle
sx
crg
eet
rei
starr
acg
teeth
linens
schultz
stillwater
recyclable
videoconferencing
##fluid
judges
believing
warwick
corridors
cephalon
deterrent
metrocall
thc
##enol
##umatic
crowley
##ocratic
roadmap
tenders
vet
syntr
janitorial
naphtha
0625
biphen
hawthorne
xyrem
punch
upstate
healthaxis
costless
nederland
##right
bornh
beryllium
aladdin
egfr
dbc
facilitation
##bancorp
vick
spx
spectrometry
versatility
##onents
misstated
colored
pont
metc
janet
geron
hugoton
feraheme
readings
inadequacy
reassessments
ariba
14th
juno
handb
kling
##preciated
caregivers
debits
1955
yorkshire
##ippany
napico
discrepancies
lions
##olec
bulgar
navigable
##mills
##ecorp
continents
diploma
drexel
osteoarthritis
meco
manageable
perfectly
canargo
staar
##erch
usho
opacity
##obank
11299
##cord
spaced
ammonium
rodriguez
rides
edible
tceq
netscout
compile
iesu
13g
telewest
bornhoft
##oche
wh4
southridge
msn
millburn
relaxed
irrad
##ureate
boomer
climates
aoc
aif
obvious
gale
toc
chadwick
cors
propriety
polychlor
invalidation
relicensing
luggage
comex
##ersburg
gso
walton
##itrade
unconstitutional
nigc
##ynchronous
parfums
cmg
densities
scarcity
wgp
vermillion
##cv
elapse
tcg
camels
ruther
arist
dreamworks
noninvasive
torque
chargeable
inducing
prioritized
deltic
palace
delete
pressured
transtexas
derivatively
nqs
patheon
mcintosh
##enhagen
myrtle
zhen
hak
##005
upload
walth
soa
28th
endoscopy
distillates
astra
bmp
##ursion
1948
balls
excursion
##pressive
catv
travelzoo
conditioners
cadus
planar
##opure
brio
cedes
hampered
resilient
##sun
cnet
corticostero
fra
unreal
2323
hrp
bulgaria
oa
impax
burk
pawns
pasc
abre
hyster
tumble
chevy
disappointing
##avit
replicated
chemotherapeutic
boarding
pbc
mint
democratic
nsos
brog
escalators
laurence
metav
ict
clustering
atherosc
mismanagement
nolan
lynx
hcm
ulti
winters
checkout
guggenheim
memo
hypothec
infused
undepreciated
submarine
picher
petersen
##herd
weapon
hutchinson
unil
classrooms
##biz
benzene
embezzlement
ccwh
fmr
degeneration
boll
ether
lapar
cerebral
lesion
tektronix
##ecker
knock
##ynet
rockef
ingel
argosy
kist
fever
manipulated
rockefeller
##sta
##uri
conglomer
realmark
safeco
goldendale
sarasota
itv
belk
sweeteners
ketter
##enic
seoul
wasserman
##alb
petrol
protease
jenrette
carbonated
##iegler
sutherland
tcr
brokering
windstorm
citations
refocus
polychlorinated
informing
vox
dentistry
hager
sugarcane
##entanyl
chop
salads
loew
corillian
fleetwood
gbcc
hiland
pershing
solaris
ashley
##osta
fentanyl
magistr
compucom
compliment
fabless
culp
##oso
##odi
organics
hgi
airtran
travelo
geoscience
##nf
##asan
orc
colle
commuter
sedimentary
arenas
reich
monaco
deltacom
##dl
casualties
clari
hubei
ixys
amn
nmfc
vcm
wabco
schreiber
hoy
alton
accused
nepa
ultrav
kpsc
consens
seach
##alez
intranets
sear
secretarial
boyle
singh
walters
rih
xc
airc
victim
plexus
jw
trainers
dox
lsg
fowler
##tura
aramark
hypog
##ophage
embarked
hif
##fires
butt
liquidator
hearth
baja
alico
helium
sulfuric
cuis
stratified
itu
ecm
##igil
##sts
undervalued
roi
wellsford
undetermined
liquidmetal
napro
sku
gav
biosante
instructors
frustrate
##rb
forks
##ograft
thermadyne
constraint
pfl
masonry
waltham
##ticello
northridge
inappropri
mtg
globals
##stra
tomography
sided
##awley
couple
stresses
pgl
genesee
refcorp
suncoke
tate
combin
biosimilars
##yside
jess
##members
anix
omagine
##frames
##ffa
misappropriating
cocon
##nard
froze
optometr
bofa
roots
newfield
##uben
brs
ingelheim
##table
rutherford
##bard
alkaline
##ptin
mario
brennan
repossessions
adcetris
mammoth
teletech
transgenic
gbc
maver
manipulate
unlock
glacier
utc
##ensor
vse
##zumab
resetting
hpci
ultipro
beazer
niss
papp
##udyne
agenda
conci
capella
outlier
emf
dentist
simulator
syntroleum
kry
rests
calumet
anac
confisc
gsp
##bet
inappropriately
breit
raj
##stm
uplink
cfm
dljmb
s99
eddie
wildfires
tallgrass
reassesses
overcoming
dha
connell
firmly
hoech
duck
##ecl
afflic
cabana
ssa
westr
##mh
repossess
bitumen
tupper
##fu
amber
centralize
amce
scots
shipboard
##bright
prescribers
nz
keefe
us12ng
loe
diane
identities
wcs
##mium
harming
epr
shields
a320
vaginal
responders
metalworking
##ecraft
##olone
straw
vouch
##ski
chal
ebc
mofc
medis
biore
e1
wic
inov
imtt
##north
nonmember
nonconforming
bloomington
waterfront
omi
delever
hoechst
##elabs
##ersea
spatial
interfered
puds
breathing
##adustat
discriminate
coram
ffp
hangzhou
origins
akamai
seachange
nir
iori
rebranding
chea
monoline
nhs
amg
unocal
hereunto
shannon
botan
ascend
fats
neff
infil
pneumonia
disputing
hsa
julie
recalled
infineon
tumbleweed
1x
lester
npr
stones
bloomfield
endoc
ivr
bushels
zep
angin
harass
rudolph
shearson
hrs
##rh
combating
esg
tnt
cheaper
##kow
baytown
sprink
peanut
crunch
yours
rankings
garb
##ativity
byron
blocker
variants
gainesville
hin
comsat
forman
stipulations
dutchess
##anza
monticello
biomarin
mofcom
kom
weighed
depositories
pasteur
planters
##orbable
airway
sblf
fdi
hebei
calor
cdp
slc
fmbs
##zynski
forte
shin
sfr
ftrs
##amon
mckee
galleria
##mile
showtime
acknowledgement
andover
usso
burbank
h1
beneath
ikb
stakes
porous
noranda
grun
shipyards
rpii
thirteenth
nightclub
remission
tsg
notion
minds
##heit
pineapple
citing
roper
png
megab
advocates
apoptosis
cache
q3
amergen
##opath
heal
msm
intraday
##alde
cbp
entrees
chromos
perrigo
wfn
biographies
cures
ritten
taip
heater
##networks
##ayment
pseud
inversely
dessert
sonat
cinemedia
auc
taur
quicker
pult
corneal
mphase
incision
spinning
hoch
specifics
recapitalized
franciscan
avery
##woven
abraham
constituencies
matson
mmr
sandra
vitas
##ilink
greeting
btc
##cath
neiman
equin
upholstered
bombardier
rifkin
##position
departing
biodegradable
##oughs
bicycle
fighting
lyd
303a
uri
##rimp
dq
rmp
adoles
cave
hematologic
##etro
condor
##111
gfc
azur
bgss
petsmart
anhydrous
zer
abe
transunion
ebitdax
[...]
